<unk>	0
<s>	0
</s>	0
,	-3.18981
.	-3.38268
▁de	-3.87185
▁the	-3.89482
s	-3.91248
▁a	-3.97101
▁of	-4.39345
▁e	-4.50328
▁and	-4.5466
▁to	-4.56419
▁que	-4.76004
▁o	-4.77912
▁in	-4.82627
-	-5.01367
▁do	-5.08593
▁em	-5.16788
▁para	-5.23747
▁da	-5.3103
▁is	-5.34719
▁um	-5.49847
▁as	-5.52699
:	-5.58522
▁that	-5.58736
▁for	-5.60849
▁com	-5.63784
▁é	-5.6415
▁uma	-5.64255
▁(	-5.68373
▁os	-5.80072
▁no	-5.80104
▁A	-5.8521
▁you	-5.85658
▁with	-5.89582
'	-5.9332
▁The	-5.94722
▁não	-5.95693
)	-5.97251
?	-6.00182
▁-	-6.0058
▁on	-6.01524
▁I	-6.03871
▁“	-6.03896
▁be	-6.09573
▁are	-6.11887
’	-6.1215
▁it	-6.14434
▁na	-6.1639
▁"	-6.17803
▁O	-6.18543
▁por	-6.18868
▁se	-6.21105
▁mais	-6.2553
▁	-6.27899
▁como	-6.29265
▁by	-6.29373
▁or	-6.34727
▁ou	-6.36913
t	-6.39336
▁from	-6.42987
▁dos	-6.43693
▁not	-6.45563
▁was	-6.45827
▁have	-6.48023
▁this	-6.4918
m	-6.49541
a	-6.5479
▁your	-6.56567
ing	-6.60727
;	-6.61619
▁can	-6.63327
▁will	-6.64507
o	-6.65132
▁ao	-6.65141
▁você	-6.65514
▁at	-6.66203
▁an	-6.66685
r	-6.72043
▁ser	-6.72145
▁sua	-6.72363
▁seu	-6.73917
▁we	-6.78948
se	-6.80061
▁à	-6.86726
e	-6.87826
!	-6.8811
▁has	-6.88342
▁which	-6.90471
▁são	-6.90786
▁all	-6.91318
▁das	-6.92382
ed	-6.93033
▁pode	-6.95766
d	-7.01685
▁sobre	-7.02465
▁foi	-7.02876
▁–	-7.03264
▁In	-7.03631
▁their	-7.03694
...	-7.06084
▁they	-7.07851
"	-7.08718
▁more	-7.09341
▁one	-7.12086
▁he	-7.13918
▁está	-7.14308
”	-7.16999
▁our	-7.17781
▁but	-7.191
▁his	-7.20146
▁It	-7.20262
▁mas	-7.20366
▁E	-7.21638
es	-7.22822
▁me	-7.23754
/	-7.24452
▁who	-7.24515
▁também	-7.27442
▁about	-7.32081
re	-7.32504
▁also	-7.32722
▁nos	-7.35864
▁other	-7.35951
▁tem	-7.38384
▁time	-7.38939
▁were	-7.40109
▁ele	-7.40357
▁its	-7.40504
.”	-7.41224
i	-7.42333
▁seus	-7.44308
▁people	-7.45443
▁muito	-7.45723
▁so	-7.46515
▁This	-7.47626
ly	-7.48462
▁been	-7.48958
▁Os	-7.49088
▁No	-7.50468
u	-7.5048
▁1	-7.5104
▁pelo	-7.52263
).	-7.52469
▁You	-7.5323
▁what	-7.53781
er	-7.54153
A	-7.54504
▁than	-7.56536
▁pela	-7.56616
▁entre	-7.56998
▁when	-7.57179
▁there	-7.57257
▁As	-7.58171
▁2	-7.58872
▁todos	-7.59048
ndo	-7.59328
▁pessoas	-7.59399
▁We	-7.59554
▁up	-7.61081
▁out	-7.61134
▁anos	-7.61347
S	-7.61793
do	-7.63724
▁quando	-7.63943
▁isso	-7.64082
▁if	-7.64138
▁new	-7.64386
▁3	-7.65107
▁had	-7.65412
▁Não	-7.65437
▁Se	-7.66136
▁them	-7.66211
▁said	-7.66743
▁only	-7.66954
▁my	-7.67719
▁may	-7.68366
▁eu	-7.69405
▁fazer	-7.69797
n	-7.69972
▁like	-7.70935
▁Em	-7.71364
lo	-7.72082
am	-7.72433
▁any	-7.72439
da	-7.73188
),	-7.73329
y	-7.74147
▁mundo	-7.74186
▁suas	-7.74744
▁tempo	-7.74754
▁would	-7.75153
▁into	-7.75201
▁world	-7.76697
mos	-7.77958
▁use	-7.78383
▁He	-7.79065
▁ter	-7.7941
▁mesmo	-7.79604
▁até	-7.79848
▁most	-7.79875
▁vida	-7.8001
▁first	-7.80161
▁bem	-7.80471
▁estão	-7.83176
▁É	-7.83287
▁us	-7.83292
▁podem	-7.8374
em	-7.83896
te	-7.84454
."	-7.86283
▁some	-7.87894
C	-7.87962
▁these	-7.89242
▁know	-7.90216
▁such	-7.90264
▁her	-7.90439
▁outros	-7.90451
▁aos	-7.90978
á	-7.91583
in	-7.92599
▁God	-7.93096
▁years	-7.93144
▁forma	-7.93168
▁sem	-7.94317
▁disse	-7.94468
▁Deus	-7.9501
▁over	-7.95129
▁should	-7.95318
▁S	-7.95708
▁If	-7.95767
▁work	-7.95922
▁qualquer	-7.95948
▁5	-7.97051
▁two	-7.9722
▁apenas	-7.97247
▁4	-7.97398
▁just	-7.97572
ar	-7.98446
▁10	-7.98637
▁eles	-7.98687
▁C	-7.99355
▁vez	-7.9947
▁And	-7.99739
▁foram	-7.99768
▁life	-8.00177
I	-8.00842
▁make	-8.016
al	-8.01822
l	-8.02577
▁De	-8.03305
▁re	-8.03529
▁há	-8.03703
▁where	-8.03831
me	-8.04483
▁Para	-8.05268
▁how	-8.05362
c	-8.0541
▁well	-8.05727
▁—	-8.05981
ve	-8.06278
O	-8.06467
▁after	-8.06468
▁era	-8.06619
▁very	-8.06889
ia	-8.06919
▁between	-8.07026
”.	-8.07387
▁through	-8.07388
▁many	-8.07603
▁parte	-8.07866
▁way	-8.07887
▁nas	-8.07994
▁dia	-8.08545
com	-8.08576
▁Ele	-8.09384
▁ainda	-8.09657
▁need	-8.09749
▁este	-8.10016
▁cada	-8.10622
▁data	-8.11286
▁because	-8.11357
mente	-8.11468
▁Hotel	-8.11768
▁trabalho	-8.11859
▁Mas	-8.12027
▁Você	-8.12297
▁get	-8.12448
▁information	-8.12566
▁those	-8.12628
▁him	-8.13441
▁já	-8.13987
ll	-8.14811
▁used	-8.15185
▁now	-8.15664
▁melhor	-8.15998
”,	-8.16031
▁grande	-8.17076
▁B	-8.19171
▁But	-8.19184
▁dados	-8.19416
▁onde	-8.19741
▁What	-8.1988
▁deve	-8.20246
to	-8.20266
▁For	-8.20373
▁even	-8.2083
▁ela	-8.20943
2	-8.21023
ou	-8.21456
▁want	-8.21854
D	-8.21897
▁esta	-8.22196
▁see	-8.22437
▁could	-8.23011
▁must	-8.23648
la	-8.24118
th	-8.24206
▁às	-8.24217
▁‘	-8.24482
▁Eu	-8.2513
▁take	-8.25391
▁Por	-8.25626
or	-8.26265
▁social	-8.26272
▁&	-8.26616
]	-8.26902
▁good	-8.27011
▁durante	-8.2711
",	-8.27113
▁right	-8.27206
▁day	-8.27461
▁maior	-8.27559
▁Como	-8.27698
▁she	-8.28025
▁nosso	-8.28424
".	-8.28964
▁porque	-8.29268
▁being	-8.29272
▁don	-8.29484
h	-8.29559
▁nós	-8.29908
ão	-8.30363
de	-8.3048
▁help	-8.30728
▁Na	-8.3075
▁made	-8.31001
▁vai	-8.31292
▁'	-8.31416
▁year	-8.31767
▁todo	-8.32025
va	-8.32221
▁contra	-8.32251
▁best	-8.32326
▁ano	-8.32329
as	-8.32781
os	-8.32948
▁todas	-8.3344
▁then	-8.33827
▁same	-8.3467
▁go	-8.3597
g	-8.36035
▁P	-8.36285
b	-8.36545
▁part	-8.36798
▁seja	-8.37293
▁sistema	-8.37462
▁Um	-8.37567
▁20	-8.3759
▁To	-8.37785
▁vezes	-8.37815
▁6	-8.38073
▁será	-8.38289
▁They	-8.38419
▁T	-8.38599
▁find	-8.38669
▁before	-8.38685
ção	-8.39035
▁dois	-8.39144
▁menos	-8.39201
is	-8.39228
▁nossa	-8.39512
▁antes	-8.3994
▁system	-8.40143
▁/	-8.40186
▁own	-8.40548
▁There	-8.40554
▁têm	-8.40813
▁sempre	-8.41282
▁site	-8.41287
▁outras	-8.41656
▁here	-8.42036
▁só	-8.42314
▁tudo	-8.42387
▁através	-8.42417
▁different	-8.43021
▁local	-8.43096
p	-8.43157
▁assim	-8.43179
B	-8.43212
▁each	-8.44035
▁New	-8.44321
▁man	-8.44437
▁informações	-8.44469
The	-8.44594
▁[	-8.4465
▁U	-8.45497
▁Com	-8.46325
▁depois	-8.46542
▁under	-8.46848
▁7	-8.47102
▁D	-8.47492
,”	-8.4763
▁without	-8.47733
▁Jesus	-8.47747
▁agora	-8.48071
▁acordo	-8.48195
▁much	-8.48638
▁So	-8.49028
▁Estados	-8.49043
▁think	-8.50123
▁primeiro	-8.50372
▁15	-8.51101
▁8	-8.51141
▁F	-8.51214
en	-8.51461
▁back	-8.52323
▁G	-8.52698
k	-8.52727
▁high	-8.5288
▁ver	-8.52962
▁Hotels	-8.53156
▁18	-8.53747
▁12	-8.53956
▁every	-8.54286
3	-8.54606
E	-8.54615
▁real	-8.5477
▁China	-8.54843
▁place	-8.55089
▁Do	-8.55354
▁Uma	-8.56052
▁qual	-8.56076
na	-8.56185
▁does	-8.56211
▁meu	-8.56293
▁alguns	-8.5631
▁outro	-8.56339
▁cidade	-8.56566
▁great	-8.56633
▁aqui	-8.57054
▁European	-8.57124
▁novo	-8.57444
▁casa	-8.57449
▁minha	-8.57682
▁final	-8.57781
▁during	-8.57886
▁nossos	-8.58095
▁When	-8.5864
▁order	-8.59184
▁All	-8.596
▁M	-8.59919
▁US	-8.60059
▁long	-8.60267
▁hotel	-8.60789
dos	-8.60951
▁three	-8.61016
▁important	-8.61097
▁produtos	-8.61233
▁human	-8.61615
▁30	-8.61832
▁três	-8.62165
▁esse	-8.62277
▁both	-8.6229
▁come	-8.62351
▁including	-8.62392
▁love	-8.6293
▁dias	-8.6295
T	-8.62953
▁Quando	-8.64047
▁então	-8.6454
▁number	-8.64737
▁estava	-8.64809
▁após	-8.64864
▁base	-8.64965
▁lugar	-8.65067
▁around	-8.65179
▁did	-8.65242
▁serviços	-8.65419
▁Este	-8.65744
▁essa	-8.6577
▁empresa	-8.65803
▁while	-8.65925
co	-8.65981
▁last	-8.66648
G	-8.66743
▁país	-8.6692
▁primeira	-8.66935
on	-8.6705
▁within	-8.67132
no	-8.67141
▁tipo	-8.67553
▁States	-8.67734
▁against	-8.68086
▁still	-8.68306
▁sido	-8.68399
▁importante	-8.68401
▁R	-8.68453
ado	-8.68464
▁business	-8.68692
▁children	-8.69234
man	-8.69394
▁desenvolvimento	-8.69573
▁tão	-8.69624
▁say	-8.6963
▁caso	-8.6965
▁países	-8.6979
▁United	-8.69839
1	-8.7044
das	-8.70717
▁things	-8.70898
▁always	-8.71057
▁That	-8.71104
▁study	-8.7124
▁found	-8.71292
M	-8.71303
▁desde	-8.71305
▁L	-8.71418
▁power	-8.71544
▁duas	-8.71668
▁global	-8.71885
▁uso	-8.72034
▁country	-8.72101
F	-8.72182
ra	-8.72282
▁|	-8.72367
▁shall	-8.72535
▁process	-8.72744
▁meio	-8.72758
▁segurança	-8.7286
P	-8.73099
▁disso	-8.73132
the	-8.73324
▁diz	-8.73366
▁saúde	-8.73388
▁pessoa	-8.7345
▁partir	-8.73644
▁down	-8.73818
▁processo	-8.73851
▁homem	-8.74099
▁exemplo	-8.74274
tion	-8.74376
us	-8.74487
▁body	-8.74549
▁company	-8.74724
▁Re	-8.74772
▁How	-8.74856
ta	-8.7486
x	-8.74948
▁free	-8.75061
▁muitas	-8.75107
▁coisas	-8.75297
▁possível	-8.75381
▁products	-8.7556
▁never	-8.75693
▁história	-8.75894
4	-8.75946
▁Hotéis	-8.76167
▁...	-8.76321
▁V	-8.76352
▁per	-8.76529
▁número	-8.76538
▁enquanto	-8.76591
▁health	-8.76609
▁online	-8.76694
▁total	-8.76732
▁going	-8.76763
▁La	-8.7679
▁end	-8.76958
▁set	-8.76987
ers	-8.77295
▁nome	-8.77639
le	-8.77951
▁another	-8.78227
▁support	-8.7823
▁services	-8.78727
▁service	-8.78959
▁available	-8.79026
▁estar	-8.79068
▁N	-8.79194
▁diferentes	-8.79367
ram	-8.7957
▁public	-8.79586
(	-8.79846
an	-8.80083
▁water	-8.80163
▁9	-8.80476
▁K	-8.80602
▁using	-8.80642
▁pelos	-8.80757
▁toda	-8.80813
▁momento	-8.81231
▁milhões	-8.8155
▁encontrar	-8.81837
▁since	-8.81926
▁conta	-8.82282
▁Esta	-8.82294
▁countries	-8.8232
▁change	-8.82324
—	-8.82325
ting	-8.82633
▁person	-8.82716
▁home	-8.82771
▁muitos	-8.82802
▁city	-8.82957
▁development	-8.83291
▁natural	-8.83473
▁mercado	-8.83929
▁possible	-8.84011
▁16	-8.84011
▁nova	-8.84053
V	-8.84252
▁fim	-8.84361
▁something	-8.84406
▁experience	-8.84451
▁show	-8.84458
▁dizer	-8.84563
nos	-8.84987
L	-8.85123
▁qualidade	-8.85364
▁pesquisa	-8.85872
▁verdade	-8.85893
z	-8.86089
▁relação	-8.86601
▁estudo	-8.8693
▁hoje	-8.86936
que	-8.86969
▁better	-8.87208
K	-8.87219
_	-8.87256
▁crianças	-8.87422
▁means	-8.87724
▁entanto	-8.87749
▁become	-8.87828
▁nunca	-8.87956
▁market	-8.88061
▁empresas	-8.88205
▁One	-8.88249
▁devem	-8.88641
▁Unidos	-8.88759
▁maioria	-8.88767
▁family	-8.88778
▁H	-8.88889
▁able	-8.88958
▁nível	-8.89018
ções	-8.89201
▁outra	-8.89255
▁tinha	-8.89295
▁give	-8.89319
▁grupo	-8.89324
▁name	-8.89326
▁coisa	-8.89354
▁control	-8.89359
▁água	-8.89479
ada	-8.89677
▁provide	-8.89681
▁With	-8.89766
▁dentro	-8.89812
▁corpo	-8.899
▁incluindo	-8.89917
▁11	-8.89975
▁women	-8.90194
▁software	-8.90301
▁called	-8.90382
▁On	-8.90679
▁group	-8.90713
▁quanto	-8.90773
▁poder	-8.90914
▁days	-8.91024
▁case	-8.91236
▁São	-8.91316
▁design	-8.91659
ca	-8.91747
▁too	-8.91967
▁sendo	-8.92184
▁mulheres	-8.9239
▁World	-8.92601
▁algumas	-8.92603
v	-8.92802
▁longo	-8.92828
▁material	-8.9303
▁co	-8.93129
▁maneira	-8.93211
▁Isso	-8.93329
ne	-8.93822
f	-8.93935
▁si	-8.93966
▁te	-8.93991
▁At	-8.93998
▁research	-8.94183
▁algo	-8.94221
▁programa	-8.94355
ity	-8.94477
▁faz	-8.94658
▁usar	-8.94677
▁precisa	-8.95118
▁14	-8.95253
▁point	-8.95402
▁She	-8.95788
▁really	-8.95806
▁million	-8.95924
▁17	-8.96126
▁nem	-8.96165
▁state	-8.96357
los	-8.96501
▁experiência	-8.96523
▁known	-8.96524
▁San	-8.96673
▁am	-8.96691
▁men	-8.97327
ir	-8.97423
▁near	-8.97433
▁lado	-8.97649
▁energia	-8.97963
▁pouco	-8.97974
▁quais	-8.98063
▁família	-8.98319
▁W	-8.9832
▁km	-8.984
▁ajudar	-8.98471
▁EUA	-8.98483
▁25	-8.9884
▁100	-8.98842
▁following	-8.98876
▁area	-8.98981
able	-8.99367
▁book	-8.99485
▁clientes	-8.99534
▁few	-8.99723
▁serviço	-8.99794
▁Co	-9.00002
▁small	-9.00331
5	-9.00345
▁deste	-9.00397
▁particular	-9.00693
▁modo	-9.00765
▁ponto	-9.00779
▁look	-9.00823
▁Comissão	-9.00932
▁access	-9.01036
▁13	-9.01081
▁government	-9.01108
▁among	-9.01323
W	-9.01517
▁problemas	-9.01563
ic	-9.01743
▁nada	-9.01747
▁num	-9.02058
H	-9.02552
▁bom	-9.02696
▁governo	-9.02757
▁Google	-9.02972
▁quer	-9.03074
▁segundo	-9.03185
▁24	-9.03457
idade	-9.03919
▁50	-9.03991
▁isto	-9.04124
▁área	-9.04274
▁However	-9.04331
▁acesso	-9.04428
▁Al	-9.04797
▁sob	-9.04929
▁today	-9.04961
▁based	-9.0521
▁un	-9.05267
▁Além	-9.05418
▁J	-9.05462
▁little	-9.05621
▁Brasil	-9.05682
▁website	-9.05683
▁live	-9.05702
▁mesma	-9.05724
▁p	-9.05762
▁might	-9.06147
ação	-9.06249
▁quem	-9.06277
▁Israel	-9.06283
▁level	-9.0634
▁off	-9.06375
▁My	-9.06407
R	-9.06411
▁quality	-9.06929
▁form	-9.06954
▁product	-9.06999
▁says	-9.07162
▁melhores	-9.07237
▁future	-9.073
▁homens	-9.07347
▁American	-9.07462
▁less	-9.07695
▁condições	-9.07715
▁produção	-9.07842
▁City	-9.07885
▁open	-9.07963
▁next	-9.08005
ry	-9.0814
▁care	-9.08259
mo	-9.08424
▁His	-9.08607
▁feel	-9.08676
,"	-9.08814
▁dar	-9.08911
▁second	-9.08935
▁law	-9.08996
▁already	-9.0901
▁often	-9.09408
▁times	-9.09591
▁energy	-9.09862
▁c	-9.09936
▁além	-9.10071
▁direito	-9.10397
▁X	-9.1043
▁cerca	-9.10545
▁example	-9.10572
▁período	-9.10709
lhe	-9.10709
▁heart	-9.10839
▁food	-9.10866
▁These	-9.10921
▁full	-9.11049
▁tratamento	-9.11413
▁car	-9.11427
▁Windows	-9.11448
▁ir	-9.11451
▁international	-9.11727
▁Commission	-9.11808
▁anti	-9.11822
▁política	-9.11844
di	-9.11936
▁pre	-9.12124
▁n	-9.12167
▁York	-9.12347
▁produto	-9.12363
▁why	-9.12568
▁causa	-9.12779
▁ajuda	-9.12826
▁put	-9.12945
▁artigo	-9.13003
▁light	-9.13054
▁Europe	-9.13294
▁together	-9.13487
▁working	-9.1349
▁fact	-9.13546
▁again	-9.13611
▁Senhor	-9.13667
▁neste	-9.13705
▁vários	-9.13794
▁jogo	-9.13979
▁present	-9.14097
▁•	-9.142
▁i	-9.14341
▁risk	-9.14448
▁personal	-9.1466
▁course	-9.14896
▁principal	-9.14962
▁amor	-9.14977
▁away	-9.15035
▁team	-9.15126
We	-9.15155
nte	-9.15319
ando	-9.15387
í	-9.15458
▁resultados	-9.1554
▁projeto	-9.15669
▁realmente	-9.15675
▁lhe	-9.15962
▁fora	-9.16173
▁problema	-9.16199
▁several	-9.16253
▁An	-9.16494
▁valor	-9.16658
▁perto	-9.16843
▁numa	-9.16847
go	-9.16863
▁others	-9.16893
▁Ela	-9.16941
▁International	-9.17211
▁content	-9.17365
N	-9.17478
▁capital	-9.17538
▁according	-9.17616
▁tanto	-9.17723
▁ex	-9.17776
▁pois	-9.17877
▁dinheiro	-9.17893
ma	-9.18015
line	-9.18102
▁presente	-9.18278
▁believe	-9.18286
ce	-9.18444
▁ficar	-9.18462
ro	-9.18501
▁grandes	-9.18563
▁cannot	-9.18758
▁Europa	-9.1892
▁Então	-9.1897
▁risco	-9.19129
▁State	-9.19215
▁until	-9.19381
▁production	-9.19488
▁Our	-9.19588
▁game	-9.19676
▁criar	-9.19769
▁keep	-9.19867
▁alta	-9.19873
▁Rio	-9.20007
▁common	-9.20026
▁non	-9.20027
▁project	-9.20075
▁Estado	-9.20106
X	-9.2023
▁University	-9.20364
▁«	-9.20368
▁given	-9.20474
▁tenha	-9.20509
▁ar	-9.20602
▁conditions	-9.20896
▁got	-9.20963
▁John	-9.21074
▁digital	-9.21125
▁tecnologia	-9.21287
▁thing	-9.21498
um	-9.21605
▁start	-9.21699
▁geral	-9.21727
▁estado	-9.21866
▁hotéis	-9.21931
▁results	-9.2212
▁large	-9.22322
ism	-9.22392
▁Ao	-9.22603
▁third	-9.22759
▁favor	-9.22851
▁etc	-9.22863
▁needs	-9.2287
ver	-9.22984
▁significa	-9.22986
ismo	-9.23001
▁lot	-9.23046
▁Eles	-9.23096
▁period	-9.23114
▁saber	-9.233
▁Todos	-9.23439
7	-9.23494
▁informação	-9.23512
▁Mais	-9.23833
▁Conselho	-9.23864
▁mim	-9.24004
▁horas	-9.24091
▁direitos	-9.24124
▁far	-9.24141
ted	-9.24261
▁After	-9.24264
▁Your	-9.24353
▁quase	-9.24363
▁objetivo	-9.24388
▁old	-9.24396
6	-9.24546
▁meses	-9.24575
▁hand	-9.24628
▁necessário	-9.2474
▁main	-9.24751
▁create	-9.24755
▁capacidade	-9.24897
▁temos	-9.24931
▁papel	-9.25091
▁having	-9.25096
▁age	-9.25279
▁série	-9.25313
▁serão	-9.25368
▁individual	-9.25462
▁original	-9.25478
▁boa	-9.25496
▁ever	-9.25532
▁let	-9.25543
▁noite	-9.25547
▁21	-9.25585
ation	-9.25604
▁least	-9.25735
▁recursos	-9.25875
▁futuro	-9.25959
▁four	-9.25969
▁novos	-9.26163
and	-9.26198
▁economic	-9.262
▁necessary	-9.26234
▁understand	-9.26288
▁making	-9.26411
▁single	-9.2649
ton	-9.26657
ados	-9.26697
▁program	-9.26751
ist	-9.26845
▁stay	-9.26864
▁death	-9.2687
▁controle	-9.26883
▁Council	-9.26935
▁technology	-9.26942
▁poderia	-9.27099
▁patients	-9.27116
▁history	-9.27156
▁esses	-9.2717
▁money	-9.27292
▁security	-9.27494
▁Internet	-9.27497
▁tal	-9.27675
▁result	-9.27691
▁Lord	-9.27732
▁Christ	-9.27793
▁manter	-9.28033
ter	-9.28071
ness	-9.28103
▁legal	-9.2811
▁_	-9.28283
▁novas	-9.28381
▁file	-9.28399
▁d	-9.2841
dor	-9.28618
res	-9.28688
▁quatro	-9.28765
▁treatment	-9.28806
▁início	-9.28877
▁TV	-9.28881
▁viagem	-9.28974
▁face	-9.28993
▁Me	-9.29139
▁próprio	-9.29156
▁lá	-9.29196
▁Mr	-9.2937
▁certain	-9.29489
▁companies	-9.2964
▁Pro	-9.29645
▁en	-9.29759
▁report	-9.29805
▁40	-9.29851
▁2017	-9.30006
st	-9.30112
▁Há	-9.30132
▁podemos	-9.30351
▁President	-9.30598
ment	-9.30622
▁Que	-9.30665
▁St	-9.30766
▁própria	-9.30797
▁Nova	-9.30846
be	-9.30878
▁desta	-9.30907
▁19	-9.30936
▁past	-9.30978
▁alguma	-9.31039
▁espaço	-9.31046
▁estamos	-9.31068
▁fácil	-9.31098
▁m	-9.3127
▁national	-9.31294
▁due	-9.31527
▁centro	-9.31673
▁caminho	-9.31714
▁rede	-9.31771
▁essas	-9.32072
▁várias	-9.32101
▁Brazil	-9.32205
▁semana	-9.32485
$	-9.32513
▁alguém	-9.32685
▁morte	-9.32759
8	-9.32853
ria	-9.32858
Y	-9.32864
▁problem	-9.32907
▁presidente	-9.32942
▁algum	-9.32944
▁principais	-9.32952
▁account	-9.33108
▁months	-9.33158
▁English	-9.33176
▁areas	-9.33422
▁done	-9.33444
▁coração	-9.33606
▁told	-9.33652
▁offer	-9.33655
▁rights	-9.33722
▁left	-9.3377
▁view	-9.33813
▁later	-9.33861
▁ambiente	-9.34225
▁termos	-9.34344
▁seria	-9.344
▁Igreja	-9.34408
▁air	-9.34707
▁Sim	-9.34727
▁Cristo	-9.34792
it	-9.34888
el	-9.34919
▁type	-9.34944
▁management	-9.34958
▁everything	-9.35006
▁Paris	-9.35022
▁knowledge	-9.35107
▁whole	-9.35134
▁nossas	-9.35306
▁livro	-9.3533
▁Portugal	-9.35344
▁By	-9.35348
▁hours	-9.35351
▁Be	-9.35625
▁popular	-9.35785
▁problems	-9.35827
▁general	-9.35916
feira	-9.36132
▁Nós	-9.36155
▁came	-9.36214
▁Dr	-9.36228
▁sucesso	-9.36306
▁possa	-9.36402
▁mil	-9.36525
▁la	-9.36556
▁whether	-9.36659
▁minutos	-9.367
▁include	-9.36701
up	-9.36732
▁low	-9.37014
▁conhecimento	-9.37024
▁mind	-9.37028
▁increase	-9.37034
▁marketing	-9.3705
▁equipe	-9.37082
ri	-9.37234
▁força	-9.37393
▁única	-9.37542
sse	-9.37688
▁passado	-9.37746
ch	-9.37764
▁once	-9.37783
▁fato	-9.37869
▁war	-9.37972
­	-9.3803
▁via	-9.38043
▁Now	-9.38114
▁value	-9.38134
▁top	-9.38197
▁More	-9.38317
▁conteúdo	-9.3845
▁falar	-9.38482
▁Free	-9.38497
▁media	-9.38542
ion	-9.3855
▁performance	-9.38581
▁sub	-9.38594
il	-9.38627
▁sites	-9.38722
tor	-9.38731
▁EU	-9.38748
▁idade	-9.38785
▁child	-9.38791
▁pro	-9.38964
▁oferece	-9.39019
▁eram	-9.39076
▁palavras	-9.39207
▁call	-9.39236
▁National	-9.39252
▁devido	-9.39368
▁question	-9.39383
▁school	-9.39447
▁industry	-9.39471
▁America	-9.39475
▁upon	-9.39515
▁mulher	-9.39569
▁obter	-9.39583
▁ensure	-9.3976
▁Mar	-9.39832
▁negócios	-9.39922
▁taken	-9.3996
▁Member	-9.39965
▁thought	-9.40081
▁specific	-9.40203
▁nesta	-9.4027
▁political	-9.40279
▁Paulo	-9.40368
▁enough	-9.40386
▁fez	-9.4043
▁luz	-9.40614
▁sure	-9.40819
▁night	-9.40909
▁post	-9.40955
▁22	-9.4096
▁Can	-9.41125
▁side	-9.41145
▁x	-9.41295
▁financial	-9.41317
▁space	-9.4139
▁+	-9.41856
10	-9.41921
▁normal	-9.42012
▁play	-9.42076
▁percent	-9.42374
▁blood	-9.42382
*	-9.42407
▁Church	-9.42407
▁makes	-9.42434
▁five	-9.42444
▁users	-9.42444
▁único	-9.42514
▁pelas	-9.42526
BAR	-9.42585
▁action	-9.42587
▁volta	-9.426
▁região	-9.42602
▁Facebook	-9.4266
é	-9.42663
▁clear	-9.42826
▁read	-9.42893
▁plan	-9.42927
▁cinco	-9.4307
▁guerra	-9.43125
▁Union	-9.43137
▁simples	-9.43141
▁changes	-9.43211
ei	-9.43322
▁público	-9.43349
▁b	-9.43387
▁systems	-9.43452
▁estou	-9.43556
▁feito	-9.43597
son	-9.43618
▁II	-9.43663
▁situação	-9.43667
▁words	-9.43756
▁tell	-9.43935
▁cause	-9.43937
▁lista	-9.44008
▁permite	-9.44008
▁crescimento	-9.44022
▁povo	-9.44042
▁special	-9.44052
con	-9.44172
ga	-9.44392
▁questão	-9.44446
▁offers	-9.44463
▁kind	-9.4451
▁central	-9.44526
▁ideal	-9.44541
▁membros	-9.44612
▁terra	-9.44613
J	-9.44653
▁May	-9.44844
▁continue	-9.45036
▁South	-9.45102
▁nothing	-9.45409
▁próximos	-9.45463
▁casos	-9.45504
▁União	-9.4553
▁close	-9.45675
▁tornar	-9.45706
▁policy	-9.45769
▁tenho	-9.45773
▁looking	-9.45869
ge	-9.4587
w	-9.4595
▁natureza	-9.45956
▁house	-9.45975
▁young	-9.46049
▁al	-9.46058
▁comum	-9.46105
▁sistemas	-9.46131
▁Go	-9.46333
▁Park	-9.46514
▁trabalhar	-9.46545
▁humanos	-9.46555
▁members	-9.4664
▁sociedade	-9.4674
▁true	-9.46808
▁Europeia	-9.46922
▁activities	-9.46991
▁nature	-9.46994
▁yet	-9.47331
▁major	-9.47412
00	-9.47468
▁lei	-9.47581
▁room	-9.47782
▁list	-9.47831
▁environment	-9.47834
▁Home	-9.47877
▁>	-9.47909
▁early	-9.4799
▁ago	-9.47993
▁análise	-9.48194
▁locais	-9.4823
▁seen	-9.48296
▁students	-9.48298
9	-9.48342
▁parece	-9.48463
▁learn	-9.48479
▁sabe	-9.48547
▁vão	-9.48554
Z	-9.48557
▁hora	-9.48663
▁irá	-9.48793
▁didn	-9.49034
ti	-9.4915
▁created	-9.49409
▁internacional	-9.49442
▁preços	-9.49496
▁60	-9.49559
▁various	-9.49589
▁price	-9.496
▁vista	-9.49692
▁poderá	-9.49766
▁user	-9.49771
▁filme	-9.49794
▁doing	-9.49935
▁hard	-9.49955
▁filhos	-9.49976
▁test	-9.50152
▁TripAdvisor	-9.50179
▁segunda	-9.50182
▁Best	-9.50229
ba	-9.50306
▁related	-9.5036
▁arquivo	-9.50365
▁0	-9.50376
▁video	-9.50467
▁Man	-9.50477
▁addition	-9.50582
▁especially	-9.50624
▁medida	-9.50643
▁Le	-9.50681
▁short	-9.50704
mail	-9.50814
▁higher	-9.5083
▁reason	-9.5093
▁aumento	-9.50955
vam	-9.50995
▁growth	-9.5109
▁Some	-9.51176
▁film	-9.51271
▁application	-9.5128
▁*	-9.51376
▁current	-9.51412
▁elas	-9.51439
▁community	-9.5146
▁sejam	-9.51595
▁deles	-9.51678
▁música	-9.51743
▁taking	-9.51789
▁áreas	-9.51796
▁disease	-9.51873
▁similar	-9.52027
▁doença	-9.52056
▁aqueles	-9.52104
▁livre	-9.52112
▁tipos	-9.52112
▁self	-9.52125
▁itself	-9.52184
▁levels	-9.52185
▁havia	-9.52213
▁apoio	-9.52381
▁week	-9.52401
▁Terra	-9.52489
▁mal	-9.52526
▁North	-9.52538
▁Assim	-9.52562
▁Car	-9.52612
▁respeito	-9.52622
▁living	-9.52628
less	-9.52807
▁mar	-9.52807
▁flights	-9.52862
▁resposta	-9.52948
▁auto	-9.52959
▁2019	-9.52965
io	-9.53057
▁role	-9.53173
▁easy	-9.53218
▁preço	-9.53275
▁Article	-9.53277
▁con	-9.5331
▁matter	-9.53339
▁education	-9.53431
▁provided	-9.53449
▁inter	-9.53556
▁Universidade	-9.53743
▁níveis	-9.53804
▁range	-9.53834
li	-9.53873
ci	-9.53959
▁resultado	-9.53961
▁diferente	-9.54001
▁cases	-9.54014
▁próximo	-9.54066
▁music	-9.54102
▁share	-9.54271
▁Why	-9.54286
ista	-9.54312
rá	-9.54327
▁cost	-9.54416
▁especial	-9.54419
▁comes	-9.54567
▁filho	-9.5458
▁amount	-9.54597
▁language	-9.54618
un	-9.54656
sa	-9.54674
▁usuários	-9.54675
▁disponíveis	-9.54793
▁House	-9.54828
▁campo	-9.54923
▁tais	-9.54962
▁América	-9.54974
▁23	-9.54992
▁France	-9.55005
adas	-9.5512
▁Z	-9.55124
▁Not	-9.55152
▁themselves	-9.5526
▁nenhum	-9.55305
at	-9.55399
▁Trump	-9.55466
▁Depois	-9.55468
ul	-9.55483
tic	-9.55598
▁further	-9.5566
▁above	-9.55662
▁efeitos	-9.55786
▁28	-9.55919
per	-9.55956
▁sociais	-9.56006
▁Sua	-9.56199
▁peso	-9.5621
ização	-9.56221
▁prazo	-9.5641
▁private	-9.56477
▁melhorar	-9.56493
▁Foi	-9.56611
▁big	-9.56989
▁sentido	-9.57096
▁especialmente	-9.57255
▁search	-9.5734
▁across	-9.57412
▁series	-9.5742
▁medidas	-9.57423
▁lead	-9.57429
▁Sul	-9.57439
▁mean	-9.57496
▁estes	-9.57547
▁Janeiro	-9.57628
▁página	-9.57638
▁From	-9.57809
▁lives	-9.57814
ina	-9.57818
▁efeito	-9.5793
▁took	-9.5794
▁line	-9.58058
▁network	-9.58343
▁Con	-9.58421
▁anything	-9.5852
▁comunidade	-9.58639
▁embora	-9.58686
▁mãe	-9.58774
▁difícil	-9.58797
▁norte	-9.58898
▁physical	-9.58959
ive	-9.58964
▁última	-9.59041
▁hotels	-9.59081
▁di	-9.5915
▁contact	-9.59164
▁pacientes	-9.59294
▁society	-9.59354
▁considered	-9.59358
▁head	-9.59375
U	-9.5943
ni	-9.59474
▁required	-9.59551
▁web	-9.59555
▁alto	-9.59574
▁começar	-9.59622
▁region	-9.5963
▁carro	-9.59637
▁fundamental	-9.59659
▁frente	-9.59844
▁Beach	-9.59845
so	-9.59846
▁pessoal	-9.59888
▁dele	-9.60114
▁training	-9.60131
▁idea	-9.60133
▁$	-9.60205
▁El	-9.60323
▁field	-9.60339
▁plano	-9.60622
▁usando	-9.60704
▁travel	-9.60929
▁visit	-9.60972
▁key	-9.60986
▁customers	-9.61036
▁studies	-9.61037
–	-9.61067
▁someone	-9.61071
▁page	-9.61091
▁DE	-9.611
mento	-9.61178
▁disponível	-9.61185
▁minutes	-9.61302
▁located	-9.61326
▁allow	-9.61339
▁Bar	-9.61354
▁g	-9.61361
▁terms	-9.61406
▁Agora	-9.61407
▁Don	-9.61451
▁pai	-9.61536
▁conjunto	-9.61561
ling	-9.61587
▁model	-9.61598
ine	-9.61635
▁doesn	-9.61637
▁2018	-9.61687
ner	-9.61804
▁claro	-9.6189
▁necessidade	-9.61912
In	-9.62143
▁animais	-9.62178
▁aplicação	-9.62182
▁chamado	-9.62242
▁bring	-9.62292
car	-9.62372
▁speed	-9.6241
▁word	-9.62441
▁story	-9.62457
▁therefore	-9.62466
▁tomar	-9.62533
▁friends	-9.62649
dores	-9.62673
▁complete	-9.6269
▁modelo	-9.6274
▁estudos	-9.62791
las	-9.6281
▁palavra	-9.6294
▁decision	-9.62943
▁população	-9.62968
▁sei	-9.63152
▁Da	-9.6316
▁Ver	-9.63173
▁however	-9.63194
he	-9.63235
▁versão	-9.63286
▁yourself	-9.6334
▁won	-9.63417
▁modern	-9.63418
▁26	-9.63433
▁sense	-9.63482
▁subject	-9.63726
▁maiores	-9.6377
▁organização	-9.63844
▁superior	-9.63882
▁garantir	-9.63909
▁grupos	-9.64069
▁effect	-9.6427
▁quantidade	-9.64274
bo	-9.64362
▁Oh	-9.64375
▁decisão	-9.64393
▁situation	-9.64427
▁atenção	-9.64445
▁event	-9.64477
▁ask	-9.64477
▁internet	-9.64505
▁nacional	-9.64544
▁along	-9.64552
▁building	-9.64562
▁sector	-9.64657
▁desempenho	-9.64659
▁Air	-9.64683
ê	-9.64699
ó	-9.64782
▁pay	-9.64802
▁longer	-9.64865
▁computer	-9.65031
▁teve	-9.65147
▁mente	-9.65176
▁Group	-9.65237
▁velocidade	-9.65259
▁cultural	-9.65304
▁became	-9.65452
▁Reino	-9.65473
pa	-9.65531
Eu	-9.65546
▁atividades	-9.65619
▁marca	-9.65691
▁pontos	-9.65822
ntes	-9.65874
▁provides	-9.65968
▁sou	-9.65982
▁deixar	-9.66221
▁groups	-9.66224
▁meet	-9.66234
▁mão	-9.66266
▁razão	-9.66269
▁relatório	-9.66384
▁amigos	-9.6643
▁weight	-9.66503
▁acima	-9.66505
▁construção	-9.66575
▁cliente	-9.66601
est	-9.66646
▁Isto	-9.66673
▁move	-9.66701
▁linha	-9.66706
▁tarde	-9.66795
▁posição	-9.66817
▁existe	-9.66825
▁capaz	-9.66871
▁Também	-9.66873
▁imagem	-9.66988
▁livros	-9.67026
▁truth	-9.67052
▁analysis	-9.67177
land	-9.67194
▁Casa	-9.67196
▁realidade	-9.6722
▁trade	-9.67285
▁2016	-9.67373
▁solução	-9.67397
▁sexual	-9.67451
ian	-9.67461
▁West	-9.67483
▁developed	-9.67487
▁pessoais	-9.67606
?”	-9.67646
▁population	-9.67696
▁run	-9.67856
▁criação	-9.67862
▁Or	-9.67908
▁terá	-9.67962
▁comunicação	-9.68001
▁strong	-9.6804
ty	-9.68111
▁jovens	-9.68151
▁Apple	-9.68167
▁forte	-9.68321
▁though	-9.68363
▁Web	-9.68379
▁super	-9.68454
ka	-9.68472
j	-9.68511
▁gestão	-9.68542
▁chegar	-9.68606
▁busca	-9.68644
▁estavam	-9.68752
▁profissionais	-9.68763
▁levar	-9.6887
ie	-9.68882
▁either	-9.68921
▁prática	-9.68929
▁usado	-9.68987
▁land	-9.68994
▁utilização	-9.69075
▁baixo	-9.69114
pe	-9.69256
▁impact	-9.69323
po	-9.69327
▁almost	-9.69376
ha	-9.69402
▁cor	-9.69632
▁protection	-9.69695
▁potential	-9.69784
▁relationship	-9.69798
▁indústria	-9.69798
▁Seu	-9.69852
▁According	-9.69946
ais	-9.69991
▁try	-9.70047
▁stop	-9.70066
▁oil	-9.70134
▁rest	-9.70136
▁effects	-9.70151
▁improve	-9.70173
▁hope	-9.70298
▁London	-9.70307
▁27	-9.70385
▁nenhuma	-9.70406
▁importantes	-9.70485
▁added	-9.70529
▁interest	-9.70602
▁rate	-9.70746
▁certo	-9.70772
▁woman	-9.7078
▁actually	-9.70804
▁suficiente	-9.70883
▁Let	-9.70885
▁s	-9.70906
▁Q	-9.70921
▁position	-9.70934
▁events	-9.70944
▁somente	-9.71041
age	-9.71137
▁Of	-9.71147
ur	-9.71181
▁visão	-9.71258
▁works	-9.71264
▁Restaurants	-9.71394
▁Central	-9.71559
ad	-9.71625
▁force	-9.71677
▁Santa	-9.71749
▁fica	-9.71777
▁prices	-9.71894
▁tornou	-9.72058
▁século	-9.72107
▁activity	-9.72199
▁comprar	-9.72215
▁geralmente	-9.72398
▁mudança	-9.72432
▁médico	-9.72433
one	-9.72461
▁simple	-9.72518
den	-9.72572
▁Center	-9.726
▁build	-9.72694
▁Earth	-9.72749
im	-9.72751
▁aumentar	-9.72794
▁posso	-9.72821
&	-9.7287
▁Well	-9.72943
▁Community	-9.72984
▁computador	-9.73065
▁ideia	-9.73078
▁measures	-9.73087
▁vi	-9.73093
▁half	-9.73142
▁vem	-9.73219
▁fornecer	-9.7324
▁himself	-9.73301
▁últimos	-9.73389
It	-9.73483
▁evitar	-9.73507
▁Get	-9.73534
▁voos	-9.73626
▁média	-9.73666
▁General	-9.73749
▁receive	-9.73773
▁alimentos	-9.73889
▁everyone	-9.73961
▁receber	-9.74027
por	-9.74032
▁chance	-9.74057
▁ação	-9.74152
▁Ar	-9.74228
▁fotos	-9.74341
▁partes	-9.74379
▁David	-9.74385
▁shows	-9.74479
▁animal	-9.74483
▁torna	-9.74822
▁solution	-9.74888
▁paz	-9.74922
▁sangue	-9.74995
▁choose	-9.75075
▁31	-9.75112
vi	-9.75134
▁went	-9.75276
▁oportunidade	-9.75302
▁políticas	-9.75374
▁Business	-9.75408
▁features	-9.75412
time	-9.75496
▁200	-9.75518
▁greater	-9.75576
▁começou	-9.75668
▁designed	-9.75791
amento	-9.75801
▁mês	-9.75895
30	-9.75936
▁Paul	-9.75985
▁return	-9.75994
▁resources	-9.7601
▁economia	-9.76064
▁email	-9.76111
▁issues	-9.76189
▁temperatura	-9.76229
CE	-9.76429
▁viver	-9.76435
▁questões	-9.76471
▁Está	-9.76547
emos	-9.76569
®	-9.76611
▁rápido	-9.76651
▁directly	-9.76682
▁moment	-9.76779
▁atrás	-9.76804
▁multi	-9.76859
id	-9.77037
▁Christian	-9.77039
des	-9.77139
▁estiver	-9.77157
▁porta	-9.7716
▁(1)	-9.77341
men	-9.77354
▁inglês	-9.77382
▁rapidamente	-9.77467
▁Microsoft	-9.7747
▁Then	-9.77622
▁Are	-9.77659
▁temperature	-9.7767
▁professional	-9.77703
▁century	-9.77816
▁desenvolver	-9.77841
▁art	-9.77922
▁vamos	-9.77994
▁Washington	-9.78058
▁respect	-9.78188
▁father	-9.78199
▁ways	-9.7822
ões	-9.78245
▁profissional	-9.78307
▁military	-9.78338
▁programas	-9.78464
▁needed	-9.78493
▁civil	-9.78605
▁dessa	-9.78617
ber	-9.7866
▁propriedade	-9.78693
ization	-9.78783
▁conhecido	-9.78789
▁serem	-9.78881
▁Who	-9.78921
▁criança	-9.78953
responsabilidade	-9.79084
▁pele	-9.79087
▁version	-9.79153
ex	-9.79167
▁jogos	-9.79208
ável	-9.79214
▁effective	-9.79236
▁bar	-9.79276
▁responsible	-9.79319
▁received	-9.7933
▁War	-9.79338
ies	-9.7938
▁pequeno	-9.79386
▁fé	-9.79445
▁turn	-9.79496
▁usuário	-9.79555
▁develop	-9.79595
▁Embora	-9.79672
▁Mo	-9.79855
tra	-9.79867
▁Here	-9.7988
▁abaixo	-9.79929
▁practice	-9.7999
▁leave	-9.8
▁pais	-9.80053
▁seguir	-9.80101
▁29	-9.8011
▁significant	-9.8017
▁ações	-9.80233
▁French	-9.80263
▁passar	-9.803
▁vídeo	-9.80344
▁mg	-9.80348
▁necessidades	-9.80403
20	-9.80414
▁2015	-9.80424
▁--	-9.80452
▁likely	-9.80456
▁started	-9.80527
▁Black	-9.80531
▁simplesmente	-9.80646
▁preciso	-9.80688
▁associated	-9.80692
▁interior	-9.80699
▁outside	-9.80803
ja	-9.80821
▁distância	-9.8086
▁fazendo	-9.80867
fi	-9.80952
▁mudar	-9.80962
▁ability	-9.80997
▁average	-9.81036
▁Essa	-9.81094
▁meus	-9.81124
▁humano	-9.81133
▁month	-9.81194
▁entire	-9.81231
▁aprender	-9.81248
▁ti	-9.81277
istas	-9.81321
nt	-9.81325
▁movimento	-9.81399
▁purpose	-9.81406
ized	-9.8143
▁motor	-9.81453
▁perfect	-9.8149
rs	-9.8152
▁follow	-9.81595
▁contato	-9.81595
▁UE	-9.81624
▁Di	-9.81636
▁rather	-9.81641
▁deal	-9.81652
▁dá	-9.81744
▁device	-9.81778
▁falta	-9.81805
▁simply	-9.81814
▁educação	-9.81904
▁PC	-9.81955
▁Já	-9.82175
▁seguinte	-9.82199
▁address	-9.82206
▁cultura	-9.82222
▁t	-9.82261
▁safety	-9.82344
▁imagens	-9.82344
▁Tu	-9.82361
▁size	-9.82375
▁loss	-9.82383
▁below	-9.8242
▁date	-9.82421
▁Porque	-9.82421
▁pensar	-9.82467
▁allows	-9.82501
▁formação	-9.82529
▁published	-9.82535
▁throughout	-9.82539
▁See	-9.82677
▁skin	-9.82705
min	-9.8274
ário	-9.82749
▁fazem	-9.82846
▁Wi	-9.82854
▁tendo	-9.82938
▁usually	-9.82975
▁six	-9.83053
▁estas	-9.83055
▁olhos	-9.83105
ant	-9.83128
▁fosse	-9.8314
▁talk	-9.83159
▁pain	-9.83253
▁Per	-9.83362
▁began	-9.83439
▁billion	-9.83562
▁whose	-9.83579
▁Use	-9.83613
▁lugares	-9.83639
▁source	-9.83748
fa	-9.83753
▁recent	-9.83797
▁Africa	-9.83851
+	-9.83897
▁sentir	-9.83971
vo	-9.84043
▁completamente	-9.84045
▁wanted	-9.84065
▁atividade	-9.84066
▁industrial	-9.84089
▁soluções	-9.84109
▁check	-9.84143
▁função	-9.84212
ler	-9.84239
▁inside	-9.8427
▁extra	-9.84352
net	-9.8453
▁padrão	-9.84559
▁beautiful	-9.84586
▁mundial	-9.84612
▁mother	-9.8466
▁Li	-9.84676
▁lower	-9.84711
▁faith	-9.84732
Se	-9.84749
▁Red	-9.84805
▁taxa	-9.84899
dia	-9.84933
▁July	-9.84947
▁increased	-9.84967
▁High	-9.84987
gi	-9.85028
▁questions	-9.85071
▁difficult	-9.85223
▁desse	-9.85377
▁customer	-9.85389
▁entrar	-9.8545
▁act	-9.85486
▁humana	-9.85493
▁Data	-9.85592
▁mental	-9.85637
▁tentar	-9.85647
▁daily	-9.85654
▁opportunity	-9.85725
▁beginning	-9.85726
▁avaliação	-9.85733
▁África	-9.85818
▁escolha	-9.85836
▁transporte	-9.85849
▁vou	-9.85891
ke	-9.85929
▁June	-9.85948
▁While	-9.86011
▁asked	-9.86012
▁unique	-9.86046
▁places	-9.86126
▁Esse	-9.86133
▁França	-9.86139
▁valores	-9.86146
year	-9.86189
▁involved	-9.8622
▁link	-9.86293
▁seis	-9.86337
▁lost	-9.86369
▁flight	-9.86402
▁held	-9.86402
▁meeting	-9.86464
▁ninguém	-9.86545
▁cancer	-9.86592
▁job	-9.86597
▁Alemanha	-9.8664
▁semanas	-9.86649
▁Where	-9.86807
▁issue	-9.86817
▁focus	-9.86877
▁built	-9.86918
et	-9.87067
▁party	-9.87087
▁earth	-9.87111
▁peace	-9.87119
▁takes	-9.87121
▁largest	-9.87125
▁perda	-9.87273
▁prevent	-9.87278
▁sim	-9.87336
▁liberdade	-9.87338
▁white	-9.87394
▁quarto	-9.87418
▁Unido	-9.87434
qui	-9.87515
▁March	-9.87566
▁reduzir	-9.87638
▁continuar	-9.8765
▁proteção	-9.87738
▁Saint	-9.87849
▁culture	-9.8791
▁Rússia	-9.87928
▁seguida	-9.87939
▁solutions	-9.87953
▁Germany	-9.87973
▁oferecer	-9.87994
▁manual	-9.88095
▁presença	-9.88108
▁books	-9.88122
ize	-9.88122
▁realizar	-9.88161
▁arte	-9.88175
▁evidence	-9.88201
▁Social	-9.88218
▁sent	-9.88235
▁member	-9.88282
▁buy	-9.88286
▁property	-9.88297
za	-9.88316
▁seguintes	-9.88538
▁trying	-9.8855
▁Airport	-9.88578
▁escola	-9.88614
▁custo	-9.88656
▁inclui	-9.88682
nce	-9.88753
▁Just	-9.88838
▁step	-9.8889
▁portanto	-9.88957
▁rules	-9.89024
▁Service	-9.89039
▁confiança	-9.89044
▁center	-9.89069
▁medo	-9.89095
▁son	-9.89154
▁Russia	-9.89169
▁soon	-9.89184
▁Norte	-9.89242
▁cabeça	-9.89248
▁church	-9.89251
▁mãos	-9.89278
▁King	-9.89341
▁existem	-9.89349
▁hospital	-9.89357
▁getting	-9.89597
▁People	-9.89626
▁cidades	-9.89631
▁Nacional	-9.8971
br	-9.89727
▁estilo	-9.89797
▁En	-9.89847
▁image	-9.89937
▁pressure	-9.8997
▁negócio	-9.89996
▁statement	-9.90016
▁essential	-9.90028
ino	-9.90033
▁logo	-9.90069
Não	-9.90127
▁German	-9.90146
▁term	-9.90147
▁vocês	-9.90213
▁Maria	-9.90248
▁article	-9.90281
▁fonte	-9.90317
▁opções	-9.90361
▁90	-9.90478
ley	-9.90482
mm	-9.90695
▁mostra	-9.90737
▁attention	-9.9075
▁possui	-9.90831
▁volume	-9.90873
▁behind	-9.90932
▁medical	-9.90933
▁(19	-9.90947
▁points	-9.91104
▁reach	-9.91117
▁Most	-9.91126
▁Art	-9.91158
▁included	-9.91182
▁saying	-9.91196
▁mudanças	-9.91212
▁weeks	-9.91264
▁formas	-9.91292
▁interesse	-9.91343
▁Internacional	-9.91388
tu	-9.91402
▁else	-9.91418
▁bad	-9.91424
▁procura	-9.91525
▁download	-9.91615
▁estrutura	-9.91655
▁curso	-9.91762
▁último	-9.91783
▁reviews	-9.91811
nd	-9.91861
▁Brazilian	-9.91914
▁standard	-9.91945
▁projects	-9.91992
▁completa	-9.92007
▁época	-9.92012
▁East	-9.92048
▁types	-9.92094
▁pequena	-9.92138
▁Health	-9.92144
▁Search	-9.92194
for	-9.92247
▁cookies	-9.92322
▁principalmente	-9.92348
▁games	-9.92493
▁quero	-9.92496
▁expected	-9.92528
▁black	-9.92579
▁eventos	-9.92608
▁organization	-9.92632
▁avoid	-9.92661
▁texto	-9.92662
▁additional	-9.92669
▁School	-9.92672
▁function	-9.92717
▁understanding	-9.92735
▁bastante	-9.92863
▁coming	-9.92866
▁Pode	-9.92926
▁transport	-9.92969
▁somos	-9.9298
▁tu	-9.93033
▁nuclear	-9.93094
▁impacto	-9.93125
▁partner	-9.93152
▁front	-9.93237
▁reported	-9.93245
▁towards	-9.93249
▁serve	-9.93265
▁message	-9.93328
ary	-9.93394
▁Michael	-9.93453
▁map	-9.93467
rem	-9.93508
du	-9.93578
▁basis	-9.93648
▁White	-9.93695
▁provavelmente	-9.93744
▁talvez	-9.93746
▁direct	-9.93753
▁80	-9.93781
▁500	-9.93821
▁importância	-9.93838
▁location	-9.93843
pro	-9.93909
▁Sa	-9.94035
▁Super	-9.94045
tes	-9.94072
gue	-9.94079
▁record	-9.94168
cha	-9.94205
Q	-9.94228
▁escolher	-9.94311
▁approach	-9.94318
▁projetos	-9.94423
▁equipment	-9.94529
▁Vi	-9.94641
▁learning	-9.94853
▁sul	-9.94885
▁established	-9.94978
▁teste	-9.95008
▁afirmou	-9.95024
▁Ex	-9.95037
Fi	-9.95044
pt	-9.95045
▁technical	-9.95171
ida	-9.95185
by	-9.95201
▁alone	-9.95237
▁2012	-9.95246
▁reduce	-9.95253
▁Global	-9.95333
▁Her	-9.95376
▁wrong	-9.95423
▁December	-9.95428
▁tamanho	-9.95452
▁Day	-9.95453
40	-9.95483
▁cities	-9.95531
▁evento	-9.95573
0	-9.95587
▁Europeu	-9.95636
▁choice	-9.9572
▁brain	-9.95735
ante	-9.95809
▁please	-9.95848
ate	-9.95861
»	-9.95883
▁atual	-9.95945
▁quickly	-9.9595
▁Find	-9.95969
▁ordem	-9.95977
▁presence	-9.96024
▁mobile	-9.96037
▁Yes	-9.96092
▁Ha	-9.96097
É	-9.96137
▁written	-9.96137
▁First	-9.96184
▁internacionais	-9.96225
▁relações	-9.96232
▁success	-9.96304
▁thus	-9.9635
▁continua	-9.96363
ana	-9.96414
▁ten	-9.96416
▁saw	-9.96449
▁contrário	-9.96527
▁friend	-9.96528
▁Since	-9.96557
ze	-9.96564
▁enjoy	-9.96576
▁hands	-9.96631
▁tinham	-9.96638
▁consider	-9.9669
▁Durante	-9.96737
ido	-9.96746
▁possam	-9.96789
▁f	-9.96849
▁Aqui	-9.96961
▁voltar	-9.96963
▁Presidente	-9.97014
Re	-9.97091
▁Los	-9.97097
▁organizações	-9.97137
▁Francisco	-9.97141
▁Yeah	-9.97146
▁alunos	-9.97168
uma	-9.97176
▁mostrar	-9.97195
▁costs	-9.97226
▁eyes	-9.97297
▁status	-9.97297
▁app	-9.97349
pi	-9.97387
▁dor	-9.97421
▁September	-9.97446
▁trip	-9.97454
ita	-9.97477
EC	-9.97489
▁includes	-9.97503
▁ferramentas	-9.97512
▁totalmente	-9.97541
▁January	-9.97548
ste	-9.97568
▁35	-9.97586
▁parts	-9.97587
▁luta	-9.9759
▁agreement	-9.97614
▁Grande	-9.977
▁dis	-9.97866
▁condition	-9.97872
▁2014	-9.9791
▁wind	-9.97928
▁entender	-9.97969
▁processos	-9.98017
▁British	-9.98057
▁actions	-9.98116
▁solar	-9.98148
▁Mundial	-9.98156
▁responsável	-9.98156
▁materiais	-9.98162
▁Quem	-9.98177
▁save	-9.98211
▁released	-9.98339
▁individuals	-9.98341
▁text	-9.98506
19	-9.98533
▁Other	-9.9854
▁review	-9.98548
▁professor	-9.98566
ble	-9.98638
▁certeza	-9.9867
▁Centro	-9.98699
▁mensagem	-9.98774
▁applications	-9.98855
▁1.	-9.98885
▁temporada	-9.98891
▁Porto	-9.98908
):	-9.98921
▁Many	-9.98971
▁Cor	-9.98986
▁regime	-9.99138
▁August	-9.99186
▁doenças	-9.99207
based	-9.99246
▁born	-9.99262
▁pedido	-9.99294
▁células	-9.99297
▁leading	-9.99298
ck	-9.99312
▁origem	-9.99395
▁autoridades	-9.99419
▁2013	-9.99451
▁led	-9.99568
▁hear	-9.9962
ya	-9.99706
▁desses	-9.99707
▁benefits	-9.99731
▁Real	-9.99732
▁Love	-9.99746
▁fire	-9.99793
▁setor	-9.99811
▁forças	-9.99948
▁diretamente	-10.0003
▁70	-10.0006
▁president	-10.0011
▁workers	-10.0014
▁science	-10.0016
▁investigação	-10.0023
▁visto	-10.004
▁Street	-10.0044
lin	-10.0047
▁fully	-10.0059
▁reality	-10.006
▁completely	-10.0063
▁class	-10.0071
▁oferta	-10.0071
60	-10.0086
▁primeiros	-10.0089
▁pré	-10.0096
▁funcionários	-10.0097
▁Is	-10.0098
▁Russian	-10.0105
▁novamente	-10.0106
▁Star	-10.0112
▁exercise	-10.0112
▁appropriate	-10.0112
▁brand	-10.0123
▁dispositivos	-10.0124
▁card	-10.0125
▁descobrir	-10.013
ac	-10.0131
▁opção	-10.015
ut	-10.0152
▁dispositivo	-10.0153
▁Vamos	-10.0154
▁brought	-10.0171
▁protect	-10.0171
▁Please	-10.0182
▁pressão	-10.0185
▁sometimes	-10.0202
▁Obama	-10.0203
bi	-10.0204
ster	-10.0211
▁Android	-10.0214
▁Top	-10.0215
▁phone	-10.0223
▁office	-10.0229
▁regional	-10.0233
tive	-10.0234
▁bio	-10.0238
▁vontade	-10.0245
▁Após	-10.0246
▁requirements	-10.0266
▁suporte	-10.0267
ol	-10.027
▁tools	-10.0271
der	-10.0275
ko	-10.0287
fe	-10.029
);	-10.0293
▁moral	-10.0298
▁easily	-10.0299
▁demais	-10.0317
▁remember	-10.0319
▁Inn	-10.0323
▁request	-10.0327
▁regras	-10.0328
▁sign	-10.033
▁chamada	-10.0331
▁consumo	-10.0332
▁fight	-10.0355
▁regular	-10.036
▁options	-10.0363
▁micro	-10.0375
▁drive	-10.0379
▁dose	-10.0379
▁potencial	-10.0383
▁estratégia	-10.0383
25	-10.0386
▁missão	-10.039
▁Cada	-10.0402
▁Mac	-10.0404
▁Su	-10.0405
▁Good	-10.0409
▁Bem	-10.0413
▁estrelas	-10.0413
14	-10.0414
▁gas	-10.0422
▁positive	-10.0424
▁Even	-10.0426
▁Enquanto	-10.043
▁details	-10.0433
▁wide	-10.0441
▁Because	-10.0442
▁goal	-10.0445
▁características	-10.0446
▁devices	-10.0448
▁forward	-10.0449
▁manhã	-10.0452
▁send	-10.0452
Membros	-10.0453
▁próxima	-10.0461
▁official	-10.0468
ten	-10.0475
▁menor	-10.0476
▁sair	-10.048
▁precisam	-10.0482
▁color	-10.0483
▁communication	-10.0484
▁tua	-10.0486
▁proteger	-10.0493
▁passo	-10.0494
old	-10.0494
▁matéria	-10.0495
▁authorities	-10.0495
▁movement	-10.0507
▁Spain	-10.051
▁obra	-10.0512
▁trans	-10.0513
▁entrada	-10.052
▁vê	-10.0525
▁utilizar	-10.0531
▁Time	-10.0536
▁tiver	-10.0539
▁consciência	-10.054
▁sea	-10.054
▁abrir	-10.0541
▁sexo	-10.0546
▁pública	-10.0551
▁investment	-10.0551
▁lack	-10.0562
▁Information	-10.0562
▁Services	-10.0573
ça	-10.0581
ng	-10.0581
▁files	-10.0582
iam	-10.0582
▁leva	-10.0583
▁Museum	-10.0584
▁star	-10.0588
▁traditional	-10.0591
▁news	-10.0594
▁Japan	-10.0595
▁método	-10.0596
▁Bay	-10.0596
▁quartos	-10.0599
▁environmental	-10.0603
▁Regulation	-10.0606
▁anyone	-10.0612
▁Lo	-10.0617
▁apply	-10.062
day	-10.062
▁Flights	-10.0621
▁freedom	-10.0628
▁April	-10.0628
▁sintomas	-10.063
▁seguro	-10.0632
▁basic	-10.0638
▁familiar	-10.064
▁classe	-10.0642
▁currently	-10.0648
▁pagamento	-10.0653
▁direção	-10.0661
▁Guerra	-10.0662
▁October	-10.0662
▁Grand	-10.0668
▁Alguns	-10.0673
▁safe	-10.0677
▁redes	-10.0683
▁céu	-10.0687
▁George	-10.0689
▁aéreas	-10.069
▁detalhes	-10.07
▁começa	-10.0702
▁season	-10.0705
▁diferença	-10.071
▁eat	-10.0711
▁venda	-10.0712
out	-10.0722
▁Island	-10.0724
▁reserva	-10.0729
▁teu	-10.0732
▁perder	-10.0732
▁particularly	-10.0734
▁feita	-10.0735
▁Parlamento	-10.074
▁James	-10.0742
▁incluem	-10.0751
▁species	-10.0751
▁del	-10.0756
term	-10.0761
▁Parliament	-10.0762
▁economy	-10.0762
▁answer	-10.0766
▁benefícios	-10.0766
tro	-10.0774
▁Y	-10.0789
▁states	-10.079
▁Today	-10.079
cor	-10.0791
ite	-10.0792
op	-10.0798
▁custos	-10.0802
▁foreign	-10.0806
tas	-10.0825
▁weather	-10.0832
▁parties	-10.0833
▁sala	-10.0836
▁late	-10.0838
▁mission	-10.0839
▁ready	-10.0839
▁active	-10.084
▁compra	-10.084
▁Tudo	-10.0841
▁Institute	-10.0841
▁cells	-10.0846
▁probably	-10.0853
▁colocar	-10.086
▁begin	-10.0868
sen	-10.0874
▁esteja	-10.0883
▁forces	-10.0884
of	-10.0885
▁elementos	-10.0887
▁happy	-10.0887
▁fear	-10.0897
▁strategy	-10.0898
▁powerful	-10.0902
▁nesse	-10.0907
▁encontra	-10.091
▁mapa	-10.0912
▁quite	-10.0914
mp	-10.0919
▁arquivos	-10.0922
▁release	-10.0922
▁trabalhadores	-10.0923
▁Un	-10.0926
▁deveria	-10.093
▁Chinese	-10.0934
▁town	-10.0935
▁remain	-10.0941
▁benefit	-10.0942
▁práticas	-10.0942
▁difference	-10.0953
▁materials	-10.0956
▁stage	-10.0956
▁enter	-10.0958
les	-10.0959
▁instituições	-10.0959
▁gonna	-10.0968
▁police	-10.0968
▁meaning	-10.0968
▁complex	-10.0974
▁factors	-10.0977
▁amigo	-10.0977
▁Design	-10.0978
▁symptoms	-10.098
▁par	-10.099
▁permitir	-10.0995
▁diante	-10.0997
▁ganhar	-10.1011
▁título	-10.1013
▁ler	-10.1022
ira	-10.1023
▁produced	-10.1023
▁parents	-10.1023
ny	-10.1024
▁India	-10.1025
gu	-10.1028
▁próprios	-10.1029
▁credit	-10.103
▁junto	-10.1032
▁Segundo	-10.1037
▁Ho	-10.1039
▁heard	-10.1041
▁skills	-10.1048
▁blog	-10.105
▁processes	-10.1054
▁usados	-10.1057
▁restaurantes	-10.1057
▁avaliações	-10.106
▁ambos	-10.1062
▁add	-10.1066
▁poor	-10.1066
16	-10.107
▁response	-10.1072
▁exchange	-10.1075
▁walk	-10.1075
▁debate	-10.1081
▁sleep	-10.1081
▁red	-10.1085
▁Ko	-10.1086
▁ground	-10.1087
▁dessas	-10.109
▁gave	-10.1098
▁programs	-10.111
▁structure	-10.1111
▁influence	-10.1111
▁morning	-10.1118
▁Committee	-10.113
▁sales	-10.1131
▁Will	-10.1132
▁document	-10.114
▁metal	-10.1141
▁happen	-10.1142
▁crime	-10.1145
gar	-10.1148
▁significativa	-10.115
▁achieve	-10.1158
▁300	-10.1163
▁character	-10.1174
15	-10.1174
▁capacity	-10.1177
▁November	-10.1177
ki	-10.1177
▁presented	-10.1179
▁indivíduos	-10.1184
▁lose	-10.1191
▁seems	-10.12
▁ideas	-10.1202
▁attack	-10.1207
mi	-10.1207
▁Hoje	-10.1214
▁nacionais	-10.1218
if	-10.1222
▁dólares	-10.1225
▁creation	-10.1226
▁imediatamente	-10.1236
▁wish	-10.1241
▁former	-10.1242
ger	-10.1244
▁plataforma	-10.1251
mar	-10.1255
▁apresenta	-10.1262
▁Estou	-10.1264
ns	-10.1265
▁=	-10.1269
▁teria	-10.1273
▁forms	-10.1275
▁shown	-10.1276
▁modelos	-10.1282
▁variety	-10.1283
▁values	-10.1284
▁Santo	-10.1284
▁proposta	-10.1288
▁spiritual	-10.1289
▁documentos	-10.1289
ron	-10.1294
▁wrote	-10.1295
▁bit	-10.1295
▁apesar	-10.1298
ações	-10.1298
▁method	-10.1299
cho	-10.1305
▁unidade	-10.1305
▁February	-10.1307
▁gives	-10.1308
▁previous	-10.1313
▁(1	-10.1314
▁desejo	-10.1315
▁Life	-10.1323
This	-10.1325
▁plant	-10.133
▁hair	-10.1331
ência	-10.1337
▁2010	-10.1347
▁Peter	-10.1349
▁Neste	-10.1363
áveis	-10.1369
▁developing	-10.1374
▁staff	-10.1379
▁geração	-10.1379
▁acontece	-10.1383
▁rápida	-10.1385
11	-10.1394
▁líder	-10.1396
▁igreja	-10.1397
▁vivo	-10.1399
▁Great	-10.1399
▁Kingdom	-10.1403
▁construction	-10.1403
▁supply	-10.1413
▁fast	-10.1422
tar	-10.1429
▁variedade	-10.1434
▁hold	-10.1444
▁operation	-10.145
▁Management	-10.1451
para	-10.1453
▁contexto	-10.1453
▁ensino	-10.1457
izar	-10.1461
As	-10.1462
▁porém	-10.1463
▁mesmos	-10.1465
▁100%	-10.1465
▁longe	-10.1468
▁quaisquer	-10.1475
▁alcançar	-10.1475
▁alterações	-10.1478
▁doctor	-10.148
▁altura	-10.1488
ent	-10.1488
▁pequenas	-10.1493
▁recente	-10.1494
▁band	-10.1495
▁Master	-10.1496
▁Office	-10.1497
▁images	-10.1498
▁Pai	-10.1504
▁€	-10.1504
▁2011	-10.1508
▁limited	-10.151
▁sound	-10.1519
▁escala	-10.152
▁aplicativo	-10.1521
▁produce	-10.1521
▁providing	-10.1524
!”	-10.1524
▁comer	-10.1528
▁During	-10.1528
▁serious	-10.1535
▁Spirit	-10.1536
▁comercial	-10.1536
▁Although	-10.1537
▁Power	-10.1537
▁Italy	-10.1537
▁highly	-10.154
ô	-10.1544
▁isn	-10.155
bit	-10.1556
▁machine	-10.1557
▁Green	-10.156
▁beyond	-10.156
▁Company	-10.156
▁accept	-10.156
▁esforços	-10.1574
▁Live	-10.1577
▁conhecer	-10.1577
▁stand	-10.1584
▁CO	-10.1587
▁speak	-10.1587
ful	-10.1588
▁Qual	-10.1594
▁comportamento	-10.1595
▁sex	-10.16
▁dead	-10.1604
▁Ou	-10.1605
▁máximo	-10.1609
▁Site	-10.1614
12	-10.1614
▁healthy	-10.1614
▁possibilidade	-10.162
▁scientific	-10.1621
▁tenham	-10.1621
▁carreira	-10.1621
▁died	-10.1622
▁Ca	-10.1623
▁compared	-10.1626
▁ouvir	-10.1627
▁regarding	-10.1634
▁fun	-10.1635
▁comércio	-10.1646
▁THE	-10.1646
▁[...]	-10.1647
▁agree	-10.1649
ven	-10.1652
-1	-10.1654
▁l	-10.1654
▁Bo	-10.1656
▁path	-10.1666
▁happened	-10.1669
▁massa	-10.1672
▁Human	-10.1673
▁fatores	-10.1676
▁referência	-10.1684
▁Law	-10.1699
▁baixa	-10.1704
▁platform	-10.1709
tos	-10.1711
▁Pa	-10.1715
▁policies	-10.172
▁redução	-10.1721
▁2000	-10.1721
?"	-10.1724
▁fall	-10.1727
ER	-10.1729
▁participação	-10.1733
▁sol	-10.1738
▁option	-10.1741
▁context	-10.1743
▁2008	-10.1744
▁facilmente	-10.1745
▁operações	-10.1746
▁excelente	-10.1747
▁estudantes	-10.1747
▁Desde	-10.1749
▁enviar	-10.1751
che	-10.1762
▁paper	-10.1764
▁leaders	-10.1767
▁Come	-10.1768
▁animals	-10.1775
▁v	-10.1781
▁cérebro	-10.1783
▁muita	-10.1785
ú	-10.1786
▁planeta	-10.1789
▁terceiros	-10.1792
▁Online	-10.1793
▁decisões	-10.1795
▁física	-10.1799
▁rei	-10.18
▁líderes	-10.1803
▁Ma	-10.1805
▁UK	-10.1806
▁religious	-10.1808
fo	-10.1815
▁grow	-10.1815
▁Court	-10.182
▁Espírito	-10.182
▁train	-10.1823
▁code	-10.1828
▁institutions	-10.1832
▁acho	-10.1833
▁habilidades	-10.1834
▁Pre	-10.1834
▁redor	-10.1836
▁damage	-10.184
▁diet	-10.1844
ated	-10.1848
▁rock	-10.185
▁técnicas	-10.185
je	-10.1851
▁require	-10.1853
▁III	-10.1856
▁fase	-10.1865
▁Amazon	-10.1868
▁instead	-10.1869
▁reasons	-10.1869
▁progress	-10.1877
▁whom	-10.1882
▁importance	-10.1883
▁climate	-10.1886
▁tax	-10.1891
▁thinking	-10.1894
▁rooms	-10.1895
▁contém	-10.1896
▁carried	-10.1896
▁Portuguese	-10.1896
▁milhares	-10.1908
▁Até	-10.1908
▁bus	-10.191
▁anterior	-10.191
▁Pe	-10.191
▁pé	-10.1913
▁bilhões	-10.1921
▁growing	-10.1923
▁album	-10.1927
▁planet	-10.1927
▁domínio	-10.1927
▁Ka	-10.1929
▁olhar	-10.1931
▁”	-10.1932
▁casamento	-10.1942
▁fala	-10.1942
No	-10.1947
ador	-10.1951
▁emprego	-10.1952
▁patient	-10.1953
▁goes	-10.1957
▁reading	-10.1963
▁tempos	-10.1966
▁Sol	-10.1966
eu	-10.1968
▁fornece	-10.1969
▁armas	-10.1971
▁Barcelona	-10.1972
▁comuns	-10.1973
▁década	-10.1978
▁tool	-10.1982
▁boas	-10.1984
pre	-10.1989
▁Tem	-10.199
▁Entre	-10.199
▁autor	-10.1997
▁construir	-10.1997
▁Itália	-10.1999
▁dela	-10.2014
▁parceria	-10.2017
▁pagar	-10.2022
▁metros	-10.2025
▁Post	-10.2026
▁visual	-10.2027
▁Restaurantes	-10.2029
▁connection	-10.203
dy	-10.2035
▁Sea	-10.2042
▁caused	-10.2042
▁membro	-10.2046
▁Research	-10.2047
▁Twitter	-10.2048
▁journey	-10.2048
▁jovem	-10.2048
▁baby	-10.2049
▁Inter	-10.2057
▁collection	-10.2057
▁existência	-10.2062
▁oficial	-10.2072
▁universal	-10.2075
▁Open	-10.2076
▁courses	-10.2077
ho	-10.2084
▁contains	-10.2087
▁Men	-10.2089
▁elements	-10.2096
ano	-10.2097
▁câncer	-10.21
▁aquela	-10.2101
24	-10.2102
▁militar	-10.2103
▁Canada	-10.2105
De	-10.2108
▁relevant	-10.2108
ssem	-10.2112
tin	-10.2112
can	-10.2121
▁strength	-10.2122
▁fontes	-10.2125
▁deseja	-10.2126
ã	-10.2126
▁Londres	-10.2126
end	-10.2131
▁esperança	-10.2139
▁actual	-10.214
▁45	-10.2143
▁Ben	-10.2146
▁degree	-10.2149
17	-10.2151
▁Espanha	-10.2153
▁cover	-10.2154
▁Cheap	-10.2165
▁usa	-10.2172
▁vendas	-10.2173
▁ataque	-10.2176
▁Ra	-10.2176
▁creating	-10.2178
▁violência	-10.2178
▁Republic	-10.2187
▁espírito	-10.2189
▁Grupo	-10.2191
▁partners	-10.2194
▁condição	-10.2204
▁comparação	-10.2204
▁Só	-10.2214
▁accordance	-10.2217
▁trás	-10.2217
fer	-10.2223
▁IP	-10.2225
▁researchers	-10.2226
au	-10.2228
ally	-10.223
▁programme	-10.2234
▁tour	-10.2234
▁trust	-10.2235
▁responsibility	-10.2243
▁promover	-10.2252
TM	-10.2252
▁pergunta	-10.2254
▁knew	-10.2256
▁voz	-10.2258
▁successful	-10.2264
▁Bank	-10.2264
▁exercício	-10.2268
▁máquina	-10.2268
▁Categoria	-10.2269
▁nessa	-10.2269
▁links	-10.2278
▁Things	-10.2279
▁highest	-10.2285
▁killed	-10.229
▁querem	-10.2292
▁exposição	-10.2295
▁operação	-10.2296
▁ciência	-10.2297
▁prova	-10.2308
▁princípio	-10.2308
▁Spanish	-10.2309
▁Play	-10.2313
▁organizations	-10.2313
▁Ne	-10.2315
▁voo	-10.2315
▁»	-10.2315
▁Dia	-10.2321
gen	-10.2327
▁completo	-10.233
▁bi	-10.2331
▁medicamentos	-10.2331
▁aquele	-10.2336
▁dizem	-10.2336
▁sete	-10.2337
▁relacionados	-10.2345
▁commercial	-10.2346
▁diabetes	-10.2349
pesar	-10.2354
▁laws	-10.236
▁especiais	-10.2361
▁conseguir	-10.2361
▁Take	-10.2363
▁Mark	-10.2366
▁Nosso	-10.2369
90	-10.2373
▁Saúde	-10.2374
▁immediately	-10.2377
mas	-10.2382
▁parceiros	-10.2384
▁Federal	-10.2388
rd	-10.2393
▁Show	-10.2396
▁transfer	-10.2405
▁perguntas	-10.241
▁sun	-10.2411
▁queria	-10.2413
▁payment	-10.2418
▁humanidade	-10.2421
agem	-10.2422
▁conforme	-10.2422
▁Onde	-10.2424
▁becomes	-10.2427
▁Lake	-10.2428
▁localização	-10.2433
▁vale	-10.2438
▁(2)	-10.244
▁taxas	-10.2444
▁voice	-10.2444
▁career	-10.2447
▁cut	-10.2452
▁Roma	-10.2454
▁latest	-10.2456
▁investimento	-10.2458
70	-10.2468
▁Veja	-10.2471
▁plans	-10.2474
▁responder	-10.2475
tiva	-10.2477
▁player	-10.2484
▁%	-10.2486
▁facto	-10.2489
▁cross	-10.2493
▁although	-10.2495
port	-10.2499
▁Each	-10.2499
bar	-10.25
▁dieta	-10.25
▁maintain	-10.2502
▁efforts	-10.2507
▁pena	-10.2508
▁operating	-10.2508
▁players	-10.2508
▁Father	-10.2509
▁girl	-10.2515
▁director	-10.2515
▁balance	-10.2517
▁passa	-10.2518
▁documents	-10.252
▁visitar	-10.2521
▁birth	-10.2521
▁trata	-10.2522
▁helps	-10.2525
▁tecnologias	-10.2528
▁employees	-10.253
▁:	-10.2532
▁engine	-10.2533
▁banda	-10.2537
eiro	-10.2538
▁feliz	-10.2541
▁Holy	-10.2543
▁longa	-10.2545
▁Mary	-10.2548
▁janeiro	-10.2548
▁atualmente	-10.2552
▁banco	-10.2554
▁torno	-10.2557
▁visita	-10.2561
▁leis	-10.2561
▁vision	-10.2565
▁exterior	-10.2568
▁aconteceu	-10.2568
▁métodos	-10.2573
▁aspectos	-10.2577
▁afirma	-10.258
her	-10.258
▁café	-10.258
▁writing	-10.2582
▁feeling	-10.2583
▁stress	-10.2587
▁vento	-10.2587
▁manutenção	-10.2589
▁Book	-10.2589
▁giving	-10.2591
▁concept	-10.2593
▁destino	-10.2595
▁regard	-10.2598
▁Inc	-10.2601
▁jogar	-10.2604
▁Tri	-10.2615
▁vir	-10.2615
▁Portanto	-10.2617
▁Him	-10.262
▁promote	-10.2626
ology	-10.2629
▁UN	-10.263
▁famílias	-10.2632
▁click	-10.2633
▁appear	-10.264
▁leader	-10.2647
▁Hong	-10.2648
▁Po	-10.2649
▁conhecida	-10.2651
▁útil	-10.2657
▁described	-10.2663
▁photos	-10.2672
▁nor	-10.2677
led	-10.2682
▁opportunities	-10.2684
▁Light	-10.2686
▁entrega	-10.2686
▁worked	-10.2686
▁Sem	-10.2687
▁methods	-10.2692
si	-10.2693
▁author	-10.2698
▁Club	-10.2699
▁deu	-10.2703
▁jogadores	-10.2704
▁comerciais	-10.2711
▁utilizado	-10.2716
▁uns	-10.2717
50	-10.272
▁lhes	-10.2724
▁48	-10.2724
▁famous	-10.2727
▁oportunidades	-10.2728
▁técnica	-10.2734
▁steps	-10.2738
▁ajudá	-10.2739
▁julho	-10.2739
▁ficou	-10.274
▁authority	-10.274
▁testes	-10.2742
▁Te	-10.2747
▁SA	-10.2751
▁Japão	-10.2753
▁operations	-10.2758
▁cidadãos	-10.2759
▁assunto	-10.2761
▁termo	-10.2771
▁apresentar	-10.2772
▁standards	-10.2773
▁conceito	-10.2775
▁junho	-10.278
▁participantes	-10.2789
▁purposes	-10.2791
ak	-10.2791
▁abordagem	-10.2794
▁Ainda	-10.2795
ence	-10.2798
▁manage	-10.2803
▁documento	-10.2806
▁break	-10.2811
80	-10.2811
▁bank	-10.2816
▁worth	-10.2816
lu	-10.2821
▁Ja	-10.2822
▁multiple	-10.2835
▁setembro	-10.2835
▁Security	-10.2836
ix	-10.2839
You	-10.2841
▁passou	-10.2845
chi	-10.2859
ance	-10.2861
▁senhor	-10.2861
01	-10.2864
▁fins	-10.2866
▁telefone	-10.2867
▁Water	-10.2867
▁changed	-10.2874
▁regiões	-10.2877
▁alma	-10.2878
▁obras	-10.288
▁adequado	-10.2889
▁spirit	-10.289
▁section	-10.2893
▁virtual	-10.2896
▁certa	-10.29
▁solo	-10.2904
▁showed	-10.2905
▁administração	-10.2906
▁worldwide	-10.2906
▁eficaz	-10.2909
▁Kong	-10.2911
▁store	-10.2912
▁Last	-10.2914
▁aid	-10.2914
▁nation	-10.2916
▁Therefore	-10.292
▁table	-10.2926
▁meios	-10.2929
▁Son	-10.2934
▁juntos	-10.2934
27	-10.2935
▁maio	-10.2937
▁soul	-10.294
▁sin	-10.2944
▁esforço	-10.2946
▁Temos	-10.2947
▁Lisboa	-10.2947
▁violence	-10.2948
▁2007	-10.2951
▁#	-10.2954
▁View	-10.2954
▁budget	-10.2961
▁resistência	-10.2962
▁artigos	-10.2962
▁Hi	-10.2973
▁opinião	-10.2975
▁cooperação	-10.2975
▁Angeles	-10.2978
cer	-10.2979
▁Also	-10.2979
▁diretor	-10.2986
▁centenas	-10.2986
▁decide	-10.2992
▁Bible	-10.2992
18	-10.2999
▁Australia	-10.3001
▁families	-10.3003
▁riscos	-10.3009
▁decided	-10.3012
▁crisis	-10.3018
▁System	-10.3019
▁razões	-10.3032
▁duração	-10.3033
▁Chi	-10.3045
lan	-10.3046
▁River	-10.3048
▁tela	-10.3051
▁title	-10.3053
▁Have	-10.3058
▁exist	-10.3058
▁importa	-10.306
▁existing	-10.306
▁pesquisadores	-10.3064
▁capazes	-10.3074
▁princípios	-10.3075
▁effort	-10.3075
ham	-10.3077
osa	-10.3077
▁Ad	-10.3079
▁funciona	-10.3089
cu	-10.3089
▁identify	-10.3089
▁funções	-10.309
▁erro	-10.3091
▁realizado	-10.3093
▁Lei	-10.3094
▁recommended	-10.3096
▁Todas	-10.3096
ide	-10.3101
▁technologies	-10.3103
we	-10.3104
▁running	-10.3104
▁centre	-10.3105
▁João	-10.3106
▁die	-10.3109
▁Only	-10.3113
▁inicial	-10.3114
▁metade	-10.3119
▁pass	-10.3124
▁Estes	-10.3125
▁2006	-10.3127
▁Sun	-10.313
▁mídia	-10.3134
▁gente	-10.3136
▁seven	-10.3138
▁2.	-10.3138
▁road	-10.3142
▁memory	-10.3145
▁participar	-10.315
▁crise	-10.3151
▁carne	-10.3162
▁Every	-10.3165
▁faça	-10.3168
▁demand	-10.3173
▁huge	-10.3176
▁terceiro	-10.3177
▁32	-10.3178
▁espera	-10.3179
▁2009	-10.3184
▁ampla	-10.3186
▁cujo	-10.3189
▁República	-10.3189
▁adultos	-10.3197
▁excellent	-10.3203
▁diversos	-10.3203
▁março	-10.3204
▁Western	-10.3204
ise	-10.3206
▁memória	-10.3207
▁superfície	-10.3207
ura	-10.3209
▁met	-10.3213
▁Port	-10.3218
▁cuja	-10.3218
▁Existem	-10.3226
▁viagens	-10.3232
▁followed	-10.3234
▁announced	-10.3234
▁thousands	-10.3235
▁verdadeira	-10.3235
▁enorme	-10.3236
▁verdadeiro	-10.3237
▁allowed	-10.3238
▁fundo	-10.3243
▁internal	-10.3245
▁frequência	-10.3246
▁álbum	-10.3247
▁Martin	-10.325
▁talking	-10.3254
▁cooperation	-10.3261
▁distance	-10.3267
▁pós	-10.3267
▁surface	-10.3269
star	-10.3272
▁Estamos	-10.3272
cre	-10.3277
▁drug	-10.328
▁crédito	-10.3281
▁style	-10.3282
▁requires	-10.3287
▁páginas	-10.3288
°	-10.3292
▁cores	-10.3293
▁fat	-10.3296
▁representa	-10.3303
▁starting	-10.3304
▁produzir	-10.3305
▁press	-10.3307
▁remains	-10.3307
▁independent	-10.3309
▁língua	-10.331
▁Resort	-10.331
▁código	-10.3311
ES	-10.3316
▁watch	-10.3319
▁wife	-10.332
ries	-10.3322
▁150	-10.3328
▁Novo	-10.3329
▁âmbito	-10.3333
▁About	-10.3334
▁objective	-10.334
▁deverá	-10.3341
▁aplicações	-10.3349
▁caixa	-10.3355
▁diversas	-10.3359
▁cuidado	-10.3363
▁reunião	-10.3363
▁majority	-10.3366
▁sources	-10.3366
▁refere	-10.337
▁box	-10.3371
▁seres	-10.3371
cia	-10.3375
▁considerado	-10.3375
If	-10.3376
▁outubro	-10.3377
▁referred	-10.3378
▁Download	-10.3378
Os	-10.3383
▁named	-10.3383
▁carros	-10.3383
▁filmes	-10.3398
▁campanha	-10.34
▁seem	-10.3401
cy	-10.3402
▁Us	-10.3408
▁KAYAK	-10.3421
▁Minister	-10.3422
▁objetivos	-10.3425
via	-10.3426
▁radio	-10.3426
▁naturais	-10.3436
▁court	-10.3439
ph	-10.3444
▁exactly	-10.3454
▁playing	-10.3455
▁Science	-10.3461
▁acontecer	-10.3461
▁Lu	-10.3466
▁lançamento	-10.3467
▁practices	-10.3467
32	-10.3473
▁greatest	-10.3484
▁eye	-10.3486
▁concerned	-10.3488
▁advanced	-10.3488
▁wants	-10.349
▁reference	-10.3492
▁Serviços	-10.3494
▁conformidade	-10.3495
▁myself	-10.3496
▁Over	-10.35
▁du	-10.3507
▁dizendo	-10.3511
▁opinion	-10.352
▁defesa	-10.3526
iz	-10.3526
▁im	-10.3527
▁Nossa	-10.3531
▁connected	-10.3532
▁processing	-10.3535
▁Association	-10.354
▁felt	-10.354
▁Jogos	-10.354
▁vidas	-10.3543
▁William	-10.3546
▁increasing	-10.355
▁escreveu	-10.3554
ities	-10.3562
▁Once	-10.3563
▁sinais	-10.3571
▁Nos	-10.3572
▁consumidores	-10.3574
▁devemos	-10.3574
▁seek	-10.3579
@	-10.3581
▁campaign	-10.3581
▁médio	-10.3584
▁stock	-10.3585
▁relativamente	-10.3587
▁cento	-10.3589
amente	-10.3592
▁autoridade	-10.3598
▁doentes	-10.3601
jo	-10.3602
bra	-10.3603
▁Bi	-10.3604
▁criado	-10.3605
ial	-10.3607
▁perform	-10.361
▁veículos	-10.3611
▁Development	-10.3615
▁Two	-10.362
▁classes	-10.3621
▁Music	-10.3623
▁deep	-10.3625
▁Rome	-10.3627
▁dezembro	-10.3629
▁cartão	-10.3631
▁CEO	-10.3634
▁obtain	-10.3635
▁decisions	-10.3635
22	-10.3637
▁grave	-10.3639
▁concerning	-10.364
▁Talvez	-10.3645
▁destes	-10.3646
▁esperar	-10.3655
▁paciente	-10.3657
ek	-10.3658
▁médicos	-10.3658
▁happens	-10.3659
▁remove	-10.366
▁facilities	-10.366
▁Big	-10.3666
▁Des	-10.3669
▁execução	-10.3675
▁mercados	-10.3678
ong	-10.3684
gan	-10.3685
tal	-10.3687
▁offered	-10.3687
▁peças	-10.3689
▁padrões	-10.369
▁spread	-10.3692
▁station	-10.3693
▁generation	-10.3693
mer	-10.3694
ists	-10.3702
ous	-10.3702
▁item	-10.3709
▁race	-10.371
36	-10.3713
US	-10.3719
▁companhia	-10.3719
▁pensamento	-10.372
▁reports	-10.3722
▁sinal	-10.3722
amos	-10.3726
▁Thus	-10.3727
▁Índia	-10.3736
▁combination	-10.3736
▁tema	-10.374
▁offering	-10.3743
kin	-10.3749
▁vehicle	-10.3751
tivo	-10.3751
▁experiências	-10.3752
▁su	-10.3753
▁Party	-10.3754
▁rates	-10.376
▁(2	-10.3767
tru	-10.3777
▁hit	-10.3779
▁adicionais	-10.3781
45	-10.3781
▁instalação	-10.3782
▁spend	-10.3783
▁aplicativos	-10.3785
side	-10.3787
▁ideias	-10.3792
ato	-10.3795
▁resolver	-10.3796
▁adopted	-10.3798
▁realizada	-10.38
▁parecer	-10.3801
▁h	-10.381
▁México	-10.3812
▁quiser	-10.3814
▁track	-10.3828
▁espécie	-10.3829
▁igualmente	-10.3829
▁useful	-10.3841
▁novembro	-10.3842
▁extremamente	-10.3843
▁Centre	-10.3845
▁identificar	-10.3847
▁carry	-10.3848
▁continued	-10.385
▁localizado	-10.3852
ung	-10.3855
▁song	-10.3857
▁win	-10.3861
13	-10.3865
ah	-10.3866
▁guide	-10.3868
EN	-10.387
▁ourselves	-10.3873
▁evil	-10.388
▁determine	-10.3882
▁models	-10.3885
▁critical	-10.3885
▁planos	-10.3896
▁professionals	-10.3898
▁recently	-10.3898
▁teaching	-10.39
▁rule	-10.3901
▁experiences	-10.3902
▁distribuição	-10.3904
ville	-10.3906
▁applied	-10.3912
▁encontro	-10.3918
▁polícia	-10.3919
▁Regulamento	-10.392
▁lo	-10.3926
▁Long	-10.3928
▁items	-10.3929
▁implementation	-10.3935
▁Mesmo	-10.3936
▁respond	-10.3941
▁rich	-10.3944
▁board	-10.3944
▁performed	-10.3945
▁Asia	-10.3945
rão	-10.3949
▁)	-10.3949
▁religião	-10.395
▁Villa	-10.3956
▁Mi	-10.3957
sta	-10.3961
▁treinamento	-10.3966
▁mo	-10.3966
▁theory	-10.3967
rei	-10.3969
▁necessária	-10.397
▁Muita	-10.3975
▁saudável	-10.3981
▁justiça	-10.3982
ço	-10.3982
▁Voos	-10.3984
▁Cidade	-10.3985
▁ferramenta	-10.3986
▁planning	-10.3997
▁Madrid	-10.3997
eira	-10.4014
lar	-10.4015
▁Si	-10.4019
▁ameaça	-10.4028
▁comentários	-10.4029
▁resto	-10.4033
▁markets	-10.4039
▁férias	-10.4044
▁leve	-10.4044
▁confidence	-10.4045
▁citizens	-10.4046
▁contrato	-10.4047
▁Sub	-10.4049
▁relacionamento	-10.405
▁nearly	-10.4051
▁Games	-10.4058
▁fevereiro	-10.4059
▁fine	-10.4063
▁dado	-10.407
AL	-10.4074
▁ro	-10.4074
▁Software	-10.4076
▁correct	-10.4082
▁ocorre	-10.4082
▁movie	-10.4082
▁purchase	-10.409
▁desire	-10.409
▁unit	-10.4091
▁Digital	-10.4091
▁aproximadamente	-10.4092
▁·	-10.4092
▁Travel	-10.4093
▁regions	-10.4096
▁desafios	-10.4097
▁Hey	-10.4099
▁cientistas	-10.4099
▁hot	-10.41
val	-10.4106
▁Directive	-10.4107
▁branco	-10.4114
▁Fa	-10.4119
▁verificar	-10.4121
▁innovation	-10.413
▁note	-10.4131
▁Am	-10.4144
▁Booking	-10.4146
▁conflict	-10.4147
▁Muito	-10.4149
▁clinical	-10.415
▁Royal	-10.4156
▁curto	-10.4157
ren	-10.4158
ez	-10.4159
26	-10.4161
▁wait	-10.4166
▁restaurants	-10.4169
▁veio	-10.417
▁Sam	-10.4174
▁aço	-10.4176
▁challenges	-10.4178
▁Sr	-10.4185
▁abril	-10.4186
▁Mexico	-10.4186
▁mm	-10.4191
par	-10.4192
▁cozinha	-10.4192
▁iPhone	-10.4202
▁federal	-10.4202
▁ancient	-10.4203
▁cell	-10.4205
▁estação	-10.4207
▁Muitos	-10.421
▁CD	-10.421
ard	-10.4211
▁write	-10.4216
▁consumption	-10.4217
▁instalações	-10.4218
▁monitor	-10.4221
off	-10.4221
▁Like	-10.4222
▁Make	-10.4223
▁dúvida	-10.4227
▁rise	-10.4229
▁affect	-10.423
board	-10.423
▁calor	-10.4231
▁eight	-10.4233
ito	-10.4236
▁clean	-10.4237
▁charge	-10.4239
▁determinar	-10.424
▁aspects	-10.4246
iza	-10.4249
▁maximum	-10.4249
▁motivo	-10.426
▁uses	-10.426
▁reservas	-10.4261
▁Robert	-10.4263
▁touch	-10.4264
ring	-10.4265
▁clique	-10.4265
▁exatamente	-10.4266
▁procedure	-10.4276
▁espécies	-10.428
ru	-10.4283
▁qu	-10.4288
▁hour	-10.4295
▁mensagens	-10.4297
▁Technology	-10.4298
▁recentemente	-10.4301
▁interested	-10.4301
▁Du	-10.4303
▁Station	-10.4303
▁secret	-10.4307
▁sky	-10.4307
▁object	-10.4308
▁cloud	-10.431
▁generally	-10.4314
▁bed	-10.4314
▁administration	-10.4315
▁formal	-10.4322
ish	-10.4323
▁wine	-10.4328
▁imp	-10.4334
iva	-10.4337
▁normalmente	-10.4338
35	-10.434
ária	-10.434
▁USA	-10.4341
▁Comunidade	-10.4342
▁cabelo	-10.4343
IT	-10.4343
▁Spa	-10.4347
▁bodies	-10.4347
▁existence	-10.4348
▁shared	-10.4352
▁door	-10.4352
▁k	-10.4352
▁dog	-10.4356
▁Era	-10.4358
▁influência	-10.4358
▁aberto	-10.4361
▁Government	-10.4363
▁Tenho	-10.4365
▁interests	-10.4368
▁clients	-10.4372
▁Latin	-10.4373
▁resolução	-10.4378
▁Italian	-10.4378
▁frequentemente	-10.4379
▁apoiar	-10.4381
way	-10.4382
▁poucos	-10.4384
▁troca	-10.4385
▁selected	-10.4387
▁businesses	-10.4389
▁Ti	-10.4392
▁vital	-10.4393
▁distribution	-10.4394
▁avaliar	-10.4395
▁fogo	-10.4401
▁equipamentos	-10.4401
55	-10.4416
▁views	-10.4421
▁perfeita	-10.4424
▁contar	-10.4428
▁comida	-10.4429
▁gosto	-10.4438
▁Meu	-10.4441
▁Rock	-10.4447
▁observed	-10.4448
▁feature	-10.4448
▁especialistas	-10.4448
▁relacionadas	-10.4456
▁African	-10.4456
0,000	-10.4458
▁tradicional	-10.4459
▁Segurança	-10.4459
▁Network	-10.4461
▁LED	-10.4465
▁baratos	-10.4469
28	-10.4472
▁Cha	-10.4473
▁student	-10.4474
▁Programa	-10.4476
▁escrito	-10.4477
99	-10.4478
▁ali	-10.4478
▁finally	-10.448
▁controlar	-10.448
não	-10.4482
▁aquilo	-10.4491
▁categoria	-10.4491
▁truly	-10.4492
▁earlier	-10.4492
▁requisitos	-10.4492
▁perfeito	-10.4492
▁extremely	-10.4496
▁Roman	-10.4498
ível	-10.4498
▁clima	-10.4503
ji	-10.4503
▁lidar	-10.4504
our	-10.4506
▁óleo	-10.4508
▁gás	-10.451
▁sabia	-10.4517
▁cent	-10.4518
▁Nações	-10.4522
▁religion	-10.4524
▁político	-10.4526
▁Women	-10.4526
▁Times	-10.4528
▁usada	-10.4532
ft	-10.4535
cas	-10.4536
ju	-10.4547
▁committed	-10.4549
▁escrever	-10.455
▁pra	-10.4551
▁external	-10.4552
▁played	-10.4552
▁compreender	-10.4552
▁televisão	-10.4558
▁cima	-10.4561
▁Project	-10.4562
▁cheap	-10.4568
vel	-10.4569
▁competition	-10.4575
▁Daniel	-10.4576
▁Cal	-10.4584
▁negative	-10.4586
▁kill	-10.4586
▁principles	-10.4589
ker	-10.4591
▁Política	-10.4592
▁teoria	-10.4593
▁ataques	-10.4595
▁recebeu	-10.4595
▁screen	-10.4598
▁CE	-10.4599
▁interesses	-10.4603
▁dez	-10.4606
▁communities	-10.4607
▁overall	-10.461
▁finalmente	-10.4611
▁realização	-10.4613
▁oito	-10.4616
▁feitas	-10.4617
wood	-10.4622
▁marriage	-10.4625
▁situações	-10.4625
▁==	-10.4627
▁vice	-10.4631
xi	-10.4634
▁expect	-10.4635
▁ilha	-10.4635
▁necessárias	-10.4636
▁particularmente	-10.4637
21	-10.4637
▁Old	-10.4643
▁componentes	-10.4644
▁Outros	-10.4644
▁plane	-10.4644
▁Euro	-10.4645
▁zona	-10.4645
▁discover	-10.4647
▁assistência	-10.4647
ens	-10.4652
▁cristãos	-10.4653
▁acredita	-10.4656
▁identified	-10.4657
▁universe	-10.4657
▁combinação	-10.4658
▁Public	-10.4659
▁intended	-10.466
▁toward	-10.4662
▁king	-10.4668
▁Their	-10.4672
cal	-10.4676
▁território	-10.4676
▁propósito	-10.4676
▁recentes	-10.4676
▁semelhante	-10.4677
▁espiritual	-10.4677
▁Van	-10.4678
▁inclusive	-10.468
▁suffering	-10.4683
▁evolução	-10.4691
For	-10.4691
bu	-10.4692
▁necessários	-10.4692
▁causes	-10.4692
▁fluxo	-10.4694
▁Iran	-10.4694
▁functions	-10.4696
ula	-10.4697
▁tiveram	-10.4701
▁task	-10.4705
▁direction	-10.4706
▁behavior	-10.4707
▁endereço	-10.4711
▁2005	-10.4715
▁Ke	-10.4721
▁identidade	-10.4724
▁universo	-10.4724
red	-10.4728
▁linhas	-10.4731
▁dark	-10.4739
▁Canadá	-10.4741
▁funcionamento	-10.4742
▁Read	-10.4745
▁paid	-10.4746
▁altamente	-10.4752
▁aware	-10.4754
▁primary	-10.4758
▁proud	-10.4758
▁sale	-10.4762
▁guests	-10.4768
▁houve	-10.4769
▁origin	-10.4772
▁Las	-10.4773
▁José	-10.4775
▁scale	-10.4782
▁antiga	-10.4782
▁factor	-10.479
▁inteiro	-10.4792
▁agenda	-10.4793
▁haver	-10.4793
tur	-10.4793
▁gostaria	-10.4796
▁compromisso	-10.4796
▁histórico	-10.4797
▁tratar	-10.4798
zo	-10.4799
bre	-10.48
▁estará	-10.4802
▁photo	-10.4807
▁biggest	-10.4808
▁unidades	-10.482
▁baseado	-10.4824
▁perfil	-10.4829
▁gain	-10.4834
▁Sha	-10.4834
▁defined	-10.4836
▁aim	-10.484
▁notice	-10.4842
▁Charles	-10.4842
▁reached	-10.4842
▁1990	-10.4843
▁expressão	-10.4844
▁green	-10.4845
▁36	-10.4853
▁contract	-10.4857
▁2004	-10.4859
▁favorite	-10.4862
▁Melhores	-10.4865
▁collect	-10.4865
▁1,	-10.4866
▁fish	-10.4869
▁England	-10.4877
▁fazê	-10.4879
▁flow	-10.488
▁manner	-10.4881
▁clearly	-10.4892
▁Road	-10.4895
▁opening	-10.4897
▁inferior	-10.4903
▁attacks	-10.4907
▁prior	-10.4908
▁goods	-10.491
▁goals	-10.4912
mor	-10.492
▁Dis	-10.4927
▁Middle	-10.4927
▁avião	-10.4927
▁agosto	-10.4927
▁spent	-10.4928
▁americanos	-10.4928
▁ligação	-10.4929
▁separate	-10.4931
▁Antes	-10.4931
▁historical	-10.4942
▁casas	-10.4944
▁properties	-10.4944
▁gama	-10.4945
06	-10.4946
▁Those	-10.4948
▁Pedro	-10.4949
▁cold	-10.4954
light	-10.4955
▁challenge	-10.4961
▁deixa	-10.4962
▁comfortable	-10.4963
▁assegurar	-10.4971
▁cama	-10.4973
RE	-10.4975
▁poderiam	-10.4975
▁inovação	-10.4979
▁Foundation	-10.4979
▁atingir	-10.4982
ag	-10.4987
▁danos	-10.499
til	-10.4991
▁attempt	-10.4995
▁select	-10.4996
▁americano	-10.4998
▁musical	-10.5002
▁Mon	-10.5002
CO	-10.5003
▁essencial	-10.5011
▁Ba	-10.5012
▁Instituto	-10.5013
▁Another	-10.5014
izing	-10.5019
▁kids	-10.5023
▁graças	-10.5026
izado	-10.5026
33	-10.5035
▁Japanese	-10.5048
▁relations	-10.5048
▁Argentina	-10.5049
▁eficiência	-10.5049
▁certainly	-10.5049
▁Game	-10.5052
tre	-10.5052
▁equipamento	-10.5059
▁morrer	-10.5061
▁couple	-10.5065
oc	-10.5066
▁33	-10.5068
▁lived	-10.507
▁dream	-10.507
▁propriedades	-10.5072
▁drugs	-10.5072
▁gordura	-10.5076
▁grau	-10.5078
▁drogas	-10.5078
▁pior	-10.5078
SA	-10.508
▁Food	-10.508
▁thanks	-10.5084
▁fizeram	-10.5084
▁Look	-10.5087
▁display	-10.509
▁bancos	-10.5094
▁Fo	-10.5096
▁Blue	-10.5097
▁intelligence	-10.51
▁sugar	-10.51
▁signs	-10.5105
▁double	-10.5109
▁affected	-10.511
▁Algumas	-10.5111
▁compreensão	-10.5117
▁chegou	-10.5117
▁comunicado	-10.5123
▁precisamos	-10.5124
▁presentes	-10.5125
▁Bíblia	-10.5135
▁measure	-10.5137
▁li	-10.5138
len	-10.5141
sk	-10.5142
▁host	-10.5146
▁Tour	-10.5147
▁aí	-10.5147
▁ciclo	-10.515
▁ouro	-10.5151
oso	-10.5161
▁independente	-10.5163
▁occur	-10.5165
▁infrastructure	-10.517
▁possíveis	-10.517
▁Sunday	-10.5171
▁saída	-10.5172
▁treat	-10.5176
▁mínimo	-10.5182
▁físico	-10.5184
▁breve	-10.5185
▁Será	-10.5185
▁heat	-10.5186
▁maneiras	-10.5186
▁petróleo	-10.5187
▁middle	-10.5188
ct	-10.5195
▁utilizados	-10.5196
▁appears	-10.5197
▁diseases	-10.5198
nes	-10.5204
▁erros	-10.5205
▁verão	-10.5205
ang	-10.5206
▁praia	-10.5206
▁button	-10.5209
▁round	-10.521
▁prepare	-10.5214
▁tornando	-10.5216
see	-10.5216
▁Samsung	-10.5222
▁botão	-10.5223
▁tens	-10.5225
▁procedures	-10.5229
▁Christians	-10.5231
tura	-10.5238
▁proposed	-10.5243
He	-10.5244
▁Mc	-10.5247
▁entrevista	-10.5251
▁edição	-10.5257
▁›	-10.5259
▁consegue	-10.526
▁interesting	-10.5271
▁brother	-10.5272
mon	-10.5275
▁extensão	-10.5275
▁Smith	-10.5277
▁sell	-10.5277
▁Word	-10.5281
▁comunidades	-10.5286
▁sold	-10.5287
▁News	-10.5288
▁sports	-10.5288
▁próprias	-10.5289
▁annual	-10.5289
▁Add	-10.5289
▁Director	-10.5291
▁pages	-10.5293
▁diagnóstico	-10.5293
▁becoming	-10.5294
▁décadas	-10.5303
▁plants	-10.5305
▁commitment	-10.5309
▁Department	-10.5311
IS	-10.5311
▁declaração	-10.5312
▁except	-10.5313
▁antigo	-10.5313
▁poderão	-10.5317
▁Back	-10.5318
▁Note	-10.5327
▁framework	-10.5329
▁pe	-10.5329
▁sustainable	-10.533
-19	-10.5331
▁objeto	-10.5331
▁crescente	-10.5332
▁públicos	-10.5334
▁controlo	-10.5347
▁Bitcoin	-10.5347
▁Mer	-10.5349
▁estadia	-10.5352
▁Type	-10.5354
▁pedir	-10.5357
▁Va	-10.5357
▁discovered	-10.5358
▁conhece	-10.536
ible	-10.536
field	-10.5364
▁efficiency	-10.5365
▁causar	-10.5367
▁pequenos	-10.5369
▁tivesse	-10.5371
ica	-10.5373
▁advantage	-10.5376
29	-10.5376
▁equal	-10.5378
▁island	-10.5387
▁trabalhando	-10.5387
▁HD	-10.5387
▁assist	-10.5388
▁incluir	-10.539
▁Ser	-10.5396
▁privacidade	-10.54
▁California	-10.5401
▁Mu	-10.5403
ü	-10.5404
wa	-10.5411
aram	-10.5411
▁hundreds	-10.5414
▁electronic	-10.5417
▁Richard	-10.5419
▁guia	-10.542
▁Mal	-10.542
▁2003	-10.5421
▁delivery	-10.5422
▁Mundo	-10.5425
▁listen	-10.5426
▁claim	-10.5434
▁Joseph	-10.5435
▁alternative	-10.5436
▁Chicago	-10.5437
▁chave	-10.5437
▁tirar	-10.5439
▁cara	-10.5444
▁represent	-10.5448
▁passed	-10.5451
▁marcas	-10.5451
▁persons	-10.5453
▁liderança	-10.5454
▁salvar	-10.5454
sh	-10.5455
▁master	-10.5457
inho	-10.5461
ific	-10.5462
▁Land	-10.5466
rio	-10.5469
▁relation	-10.5473
▁dangerous	-10.5474
▁madeira	-10.5476
▁constante	-10.5479
AS	-10.5479
▁mu	-10.5479
▁compartilhar	-10.548
ning	-10.5482
▁Hall	-10.549
▁Policy	-10.549
▁Quality	-10.5492
lhes	-10.5492
▁recommend	-10.5498
▁irmão	-10.55
▁contain	-10.55
▁Jack	-10.5508
▁conexão	-10.5508
▁armazenamento	-10.5509
▁juntamente	-10.5509
▁principle	-10.551
▁female	-10.551
▁filha	-10.5511
▁certamente	-10.5512
▁joint	-10.5524
qu	-10.5525
▁Serviço	-10.553
31	-10.553
▁estabelecer	-10.5532
▁Jo	-10.5533
q	-10.5534
▁forget	-10.5537
▁meta	-10.5543
▁relativa	-10.5544
▁HIV	-10.5545
▁Unidas	-10.5546
▁DNA	-10.5546
iv	-10.5547
▁minhas	-10.5548
▁foco	-10.5549
▁considerar	-10.555
▁drink	-10.5552
▁limit	-10.5554
▁solid	-10.5555
ure	-10.5555
not	-10.5559
▁Museu	-10.5563
▁reduction	-10.5564
▁Costa	-10.5564
▁jogador	-10.5566
▁tarefa	-10.5567
ier	-10.5572
▁Disney	-10.5581
▁privacy	-10.5581
▁legislação	-10.5581
▁Before	-10.5583
▁aceitar	-10.5586
▁profile	-10.5586
▁som	-10.5589
▁Korea	-10.5589
▁procurar	-10.5591
Con	-10.5594
▁setting	-10.5595
▁storage	-10.5599
▁Ni	-10.5604
▁trazer	-10.5605
▁fuel	-10.5607
▁Anti	-10.5611
▁experienced	-10.5613
▁Thomas	-10.5618
▁políticos	-10.5619
▁Special	-10.5629
▁networks	-10.563
▁agreed	-10.5631
IC	-10.5635
▁characteristics	-10.5638
▁experts	-10.564
▁quadro	-10.5643
▁deliver	-10.5646
▁mi	-10.5652
▁reduced	-10.5653
▁picture	-10.5659
pending	-10.5663
▁App	-10.5669
▁OF	-10.567
▁wasn	-10.5672
▁visa	-10.5673
▁television	-10.5673
▁ambiental	-10.5673
▁County	-10.5674
▁Control	-10.5676
▁graça	-10.5678
▁400	-10.5678
▁Video	-10.5681
▁oral	-10.5681
▁carta	-10.5683
iu	-10.5685
▁waste	-10.5685
▁números	-10.5688
▁menu	-10.5691
▁identity	-10.5691
▁vídeos	-10.5692
▁Okay	-10.5693
▁fruit	-10.5694
▁Pan	-10.5694
▁Ri	-10.5697
▁Map	-10.5701
▁pretende	-10.5703
▁turned	-10.5713
▁Ltd	-10.5713
-3	-10.5714
▁garantia	-10.5716
▁proposal	-10.5716
▁criminal	-10.5716
▁DO	-10.5719
▁Family	-10.5729
▁ba	-10.5729
▁levou	-10.573
▁enable	-10.573
house	-10.573
▁zero	-10.5731
▁target	-10.5732
▁populares	-10.5735
▁matar	-10.5742
▁À	-10.5743
▁leadership	-10.5747
▁disseram	-10.5749
▁escolas	-10.5751
IN	-10.5753
▁beach	-10.5759
▁Pi	-10.576
There	-10.5765
▁College	-10.5766
▁financeira	-10.577
▁fortes	-10.5772
▁explore	-10.5775
▁militares	-10.5776
▁Governo	-10.5777
▁respostas	-10.5784
▁euros	-10.5787
iro	-10.5793
▁firm	-10.5799
▁cm	-10.5801
▁leads	-10.5802
▁stars	-10.5802
▁Ci	-10.5804
Com	-10.5807
▁notícias	-10.5807
▁Nations	-10.5807
DE	-10.5808
▁miles	-10.581
▁assume	-10.5813
▁contribute	-10.582
05	-10.5821
▁Desenvolvimento	-10.5822
▁partida	-10.5822
▁delas	-10.5827
▁Quanto	-10.5832
▁treated	-10.5833
▁lines	-10.5838
▁Tra	-10.5839
▁ratio	-10.5839
▁Porém	-10.584
▁hóspedes	-10.5841
▁Next	-10.5842
▁mentioned	-10.5849
▁conducted	-10.5849
▁34	-10.585
▁chat	-10.5853
▁join	-10.5859
▁alegria	-10.5859
▁Civil	-10.5859
▁moving	-10.5859
75	-10.5867
▁tried	-10.5868
istic	-10.5868
▁Ta	-10.5871
▁ISO	-10.5878
▁Energy	-10.5879
▁nations	-10.5884
SP	-10.5884
PA	-10.5887
▁schools	-10.5888
▁wall	-10.5889
▁cinema	-10.5895
▁decades	-10.5895
▁Tal	-10.5896
What	-10.5897
▁Caso	-10.5902
▁risks	-10.5905
▁launched	-10.5905
▁Sal	-10.5906
▁failure	-10.5906
▁covered	-10.5911
▁Ro	-10.5912
▁Fund	-10.5915
▁associação	-10.5916
▁hardware	-10.5916
▁leitura	-10.5916
▁otherwise	-10.5917
ud	-10.592
▁vigor	-10.5932
▁Any	-10.5933
▁easier	-10.5934
▁stories	-10.5934
▁Ásia	-10.5934
▁futebol	-10.5935
▁75	-10.594
▁properly	-10.594
▁secure	-10.5943
▁gratuito	-10.5945
▁anteriores	-10.5946
▁deals	-10.5949
▁chemical	-10.5949
▁numbers	-10.595
▁leaving	-10.5953
▁possibility	-10.5954
▁justice	-10.5956
▁restaurante	-10.5958
▁opened	-10.596
▁urban	-10.596
▁desafio	-10.5964
▁doubt	-10.5964
▁irão	-10.5966
!"	-10.5969
▁maintenance	-10.5972
▁Tribunal	-10.5973
▁inteligência	-10.5973
▁dedicated	-10.5973
▁Banco	-10.5974
▁tentando	-10.5976
▁previously	-10.5981
ente	-10.5987
▁length	-10.5989
▁Act	-10.599
▁equipa	-10.5991
▁battle	-10.5991
▁Informações	-10.5992
▁gone	-10.5993
▁errado	-10.5993
ab	-10.5996
▁websites	-10.6
▁prepared	-10.6002
ran	-10.6002
▁normas	-10.6003
▁participants	-10.6005
▁sabemos	-10.6007
▁cat	-10.6007
▁south	-10.6007
▁severe	-10.601
▁cumprir	-10.6011
▁gold	-10.6014
Do	-10.6015
▁menores	-10.6024
▁plantas	-10.6024
▁possuem	-10.6029
▁Reviews	-10.603
▁gosta	-10.6036
▁anúncios	-10.6037
▁vote	-10.6044
▁Esses	-10.6044
▁(3)	-10.6044
▁accepted	-10.6045
▁income	-10.6045
▁Did	-10.6047
▁components	-10.6048
▁crucial	-10.6049
▁$1	-10.6049
▁summer	-10.6049
▁Dan	-10.605
▁Lee	-10.6052
ship	-10.6055
▁?	-10.6057
ED	-10.6057
▁define	-10.6065
CA	-10.6068
▁Austrália	-10.6068
▁1995	-10.6072
▁installed	-10.6074
chave	-10.6075
▁Program	-10.6076
▁lançado	-10.6076
▁37	-10.6077
▁publicado	-10.6081
▁girls	-10.6082
▁loja	-10.6082
LA	-10.6083
lla	-10.6083
▁consigo	-10.6087
▁tests	-10.6089
tel	-10.6092
▁placed	-10.61
▁letter	-10.61
ras	-10.6104
gre	-10.6106
RA	-10.6107
▁traffic	-10.6107
ov	-10.6109
▁50%	-10.611
02	-10.6113
OS	-10.6117
▁calls	-10.612
▁daughter	-10.6121
▁ofertas	-10.6121
▁older	-10.6123
▁beleza	-10.6125
▁irmãos	-10.6126
▁steel	-10.6126
▁Website	-10.6126
▁Friday	-10.6126
▁selection	-10.6127
▁DA	-10.613
▁Geral	-10.613
▁revealed	-10.6131
▁Up	-10.6134
▁financeiro	-10.614
▁appearance	-10.6145
▁circumstances	-10.6146
▁segura	-10.615
▁rio	-10.615
▁north	-10.6158
▁Thank	-10.6162
▁2020	-10.6163
▁prayer	-10.6163
▁linguagem	-10.6164
tri	-10.6165
▁disco	-10.6166
▁plastic	-10.6166
▁judeus	-10.6169
▁objects	-10.617
▁concern	-10.6172
▁eating	-10.6176
cl	-10.6179
▁thousand	-10.618
▁Essas	-10.6181
▁IT	-10.6182
gem	-10.6183
▁Holiday	-10.6183
▁Society	-10.6183
▁trading	-10.6184
▁nascimento	-10.6186
▁oração	-10.6186
▁significado	-10.6187
▁whatever	-10.6188
sol	-10.6189
let	-10.6196
▁floor	-10.62
▁Gold	-10.62
▁revista	-10.6201
▁Agreement	-10.6203
▁esposa	-10.6203
▁prisão	-10.6203
▁Check	-10.6203
▁máquinas	-10.6205
▁nice	-10.6208
MS	-10.621
Co	-10.6212
hi	-10.6212
▁Vou	-10.6213
▁permitem	-10.6215
▁pés	-10.6216
▁threat	-10.6217
ap	-10.6217
nal	-10.6219
▁formato	-10.6219
▁Catholic	-10.6219
▁Aeroporto	-10.6223
▁processamento	-10.6227
▁explain	-10.6235
▁traz	-10.6238
▁podia	-10.6239
▁comigo	-10.624
▁reconhecimento	-10.6242
▁Inglaterra	-10.6242
-2	-10.6252
▁trabalhos	-10.6255
SE	-10.6258
all	-10.6259
▁personagens	-10.6262
▁joy	-10.6266
▁Media	-10.6267
▁update	-10.6271
▁aumenta	-10.6278
▁domestic	-10.6281
▁participation	-10.6281
ava	-10.6284
ping	-10.6293
tory	-10.6293
▁looks	-10.6298
▁dry	-10.6298
▁interface	-10.6299
▁combate	-10.63
▁applicable	-10.6301
▁labor	-10.6305
ola	-10.6308
tan	-10.6308
cur	-10.6308
▁Tom	-10.6312
▁pecado	-10.6319
▁Greek	-10.632
▁Convention	-10.632
▁específicas	-10.632
▁verde	-10.6322
95	-10.6323
▁Syria	-10.633
▁Sistema	-10.634
▁kept	-10.634
▁knows	-10.6345
▁Vale	-10.6347
▁vítimas	-10.6355
▁móveis	-10.636
▁advance	-10.637
▁foto	-10.6373
berg	-10.6373
▁canal	-10.6377
▁Filho	-10.638
▁assistance	-10.638
▁resistance	-10.638
▁nações	-10.6382
▁Under	-10.6383
rra	-10.6384
▁languages	-10.6394
hu	-10.6398
inha	-10.6398
ward	-10.6404
Você	-10.642
▁helped	-10.642
▁Christmas	-10.6421
▁mortos	-10.6425
▁scientists	-10.6427
▁Bio	-10.6429
ias	-10.6432
▁glass	-10.6434
▁core	-10.6436
▁aeroporto	-10.644
▁airport	-10.6441
lho	-10.6441
▁Ga	-10.6444
▁contas	-10.6445
▁queremos	-10.6446
▁trabalha	-10.6446
▁feet	-10.6447
▁reais	-10.6447
▁Mor	-10.6448
▁existentes	-10.6451
▁cuidados	-10.6454
▁sente	-10.6454
▁artificial	-10.6459
▁ônibus	-10.6459
▁responsáveis	-10.6459
▁Califórnia	-10.646
▁conflito	-10.646
▁acid	-10.6467
▁mesa	-10.6472
▁moved	-10.6473
ile	-10.6473
▁initial	-10.6473
▁proper	-10.6478
▁beauty	-10.6479
▁husband	-10.6479
08	-10.6479
▁perhaps	-10.6479
▁approximately	-10.648
como	-10.6489
vos	-10.6489
▁baseada	-10.6491
▁orçamento	-10.6499
▁creative	-10.6499
▁Inglês	-10.65
▁Jewish	-10.65
▁certas	-10.6502
▁rare	-10.6507
▁determined	-10.6511
▁COM	-10.6514
▁figure	-10.6515
La	-10.6516
[	-10.653
▁relationships	-10.653
mit	-10.6532
▁Wall	-10.6537
▁recebe	-10.6539
▁Monte	-10.654
▁linked	-10.654
▁Fe	-10.6545
cos	-10.6545
▁begins	-10.6546
dio	-10.6546
=	-10.6547
▁acha	-10.655
▁comfort	-10.6552
▁professores	-10.6553
▁usam	-10.6554
▁adults	-10.6554
ture	-10.6561
▁Gar	-10.6561
▁objetos	-10.6561
bal	-10.6562
▁perspectiva	-10.6563
▁techniques	-10.6565
dis	-10.6566
▁certos	-10.6566
▁Watch	-10.6566
▁65	-10.6574
TA	-10.6574
▁procedimentos	-10.6575
▁believed	-10.6578
▁Par	-10.658
▁Indian	-10.6581
▁mainly	-10.6582
▁econômico	-10.6583
▁Ya	-10.6584
▁consumers	-10.6584
▁Natal	-10.6585
▁ship	-10.6588
▁Auto	-10.6594
▁atender	-10.6598
▁USB	-10.6602
▁consent	-10.6602
▁demanda	-10.6603
▁bebê	-10.6604
▁procedimento	-10.6604
ps	-10.6604
▁completed	-10.6605
▁momentos	-10.6607
free	-10.6607
▁chefe	-10.6612
▁monitoring	-10.6617
▁Education	-10.6617
▁instruções	-10.662
▁strategies	-10.662
▁Festival	-10.662
▁definição	-10.662
▁sa	-10.6621
▁chosen	-10.6623
▁Work	-10.6623
▁veículo	-10.6624
▁cycle	-10.6627
44	-10.6629
▁campos	-10.6635
▁deixou	-10.664
▁companhias	-10.6641
▁adequada	-10.6642
▁000	-10.6645
▁VI	-10.6646
Na	-10.6649
▁jobs	-10.6653
▁Product	-10.6654
▁viu	-10.6654
▁fair	-10.6658
▁adicional	-10.6661
▁chega	-10.6662
▁vírus	-10.6662
▁Venezuela	-10.6668
▁bens	-10.6669
▁learned	-10.6672
ele	-10.6676
▁Cup	-10.6677
▁cura	-10.6677
pan	-10.6679
▁Papa	-10.6679
LE	-10.668
▁exército	-10.6681
▁impressão	-10.6681
▁euro	-10.6682
▁claramente	-10.6683
▁Hot	-10.6687
▁vos	-10.6688
gra	-10.6689
▁articles	-10.6698
▁efficient	-10.6698
AR	-10.6699
▁SP	-10.67
▁impossible	-10.6701
▁incrível	-10.6701
▁Board	-10.6702
aria	-10.6702
▁rota	-10.6704
38	-10.6704
▁fans	-10.6705
▁vive	-10.6707
▁nomes	-10.6709
▁cabo	-10.6716
▁signed	-10.6719
▁helping	-10.6722
Nós	-10.6724
▁partido	-10.6726
▁names	-10.6729
back	-10.6731
▁units	-10.6733
over	-10.6742
▁História	-10.6744
▁client	-10.6746
▁escritório	-10.6749
ised	-10.6749
▁Tratado	-10.6751
▁Personal	-10.6756
▁minimum	-10.6762
▁Cuba	-10.6767
▁DC	-10.6768
▁alimentar	-10.677
▁científica	-10.6771
▁apartment	-10.6772
▁larger	-10.6773
▁Che	-10.6774
▁bons	-10.6774
▁Bill	-10.6777
stra	-10.6778
▁Bus	-10.6782
▁Egypt	-10.6783
68	-10.6784
▁recurso	-10.6787
▁Sobre	-10.679
▁indivíduo	-10.6791
▁expression	-10.6792
▁batalha	-10.6792
estar	-10.6796
▁Contact	-10.6796
▁heaven	-10.6798
▁realize	-10.6799
▁tarefas	-10.6801
▁vidro	-10.6804
▁browser	-10.6806
▁provisions	-10.6808
▁automatically	-10.6815
▁diferenças	-10.6817
▁pesquisas	-10.6818
39	-10.6821
lha	-10.6822
▁Ter	-10.6823
▁Lisbon	-10.6824
▁innovative	-10.6824
▁sort	-10.6825
▁Support	-10.6825
▁Town	-10.6826
▁apresentação	-10.6828
ach	-10.6828
▁explica	-10.6829
vin	-10.6839
▁pool	-10.684
▁teams	-10.6841
▁igual	-10.6842
▁públicas	-10.6843
▁Sou	-10.6849
▁Seus	-10.6851
▁feitos	-10.6852
▁Pope	-10.6854
▁Oriente	-10.6854
▁extension	-10.6855
▁phase	-10.6856
▁constitui	-10.6859
▁iniciar	-10.6859
▁Head	-10.686
▁allowing	-10.6864
▁fields	-10.6868
▁utilizando	-10.687
▁sede	-10.6872
▁visitors	-10.6874
▁significantly	-10.6879
▁piece	-10.6881
▁42	-10.6884
▁served	-10.6885
▁diálogo	-10.6887
▁despite	-10.6887
▁quarta	-10.6887
▁Descrição	-10.6887
▁limites	-10.6887
▁consiste	-10.6889
▁específicos	-10.6889
▁Berlin	-10.6889
ID	-10.6889
▁2001	-10.6895
▁Tipo	-10.6899
▁listed	-10.69
▁acreditar	-10.69
▁açúcar	-10.6901
ING	-10.6906
▁Jews	-10.6907
▁unless	-10.6911
▁Ana	-10.6916
▁analisar	-10.6917
▁prefer	-10.6918
ating	-10.6918
▁po	-10.692
qua	-10.6923
▁match	-10.6924
▁financiamento	-10.6929
▁Nunca	-10.6931
▁histórias	-10.6933
cional	-10.6938
▁ficheiro	-10.6939
▁dito	-10.6941
37	-10.6947
▁encontrado	-10.6948
▁automaticamente	-10.6949
▁boy	-10.695
▁proximidades	-10.695
▁criou	-10.695
▁History	-10.6952
▁Hu	-10.696
rie	-10.6962
▁tra	-10.6964
▁conduct	-10.6964
bri	-10.6969
▁Hospital	-10.6969
▁Apenas	-10.6972
▁(3	-10.6973
▁Estas	-10.6974
▁passos	-10.6974
▁quick	-10.698
▁Bal	-10.6981
▁cursos	-10.6982
▁iniciativa	-10.6982
▁prazer	-10.6984
▁crescer	-10.6987
spe	-10.6988
▁sonho	-10.6988
▁crimes	-10.6989
▁abertura	-10.6992
▁1970	-10.6993
▁Cu	-10.6993
tions	-10.6994
▁instrumentos	-10.6994
▁Dados	-10.6995
▁europeus	-10.6998
▁male	-10.6999
▁Lista	-10.6999
ara	-10.7
▁guarantee	-10.7002
▁Gi	-10.7004
▁obtained	-10.7005
tivos	-10.7008
▁Har	-10.7009
▁estabelecimento	-10.7012
▁territory	-10.7012
▁aircraft	-10.7012
▁changing	-10.7015
34	-10.702
And	-10.7022
▁resolution	-10.7027
▁Departamento	-10.7033
▁numerous	-10.7033
▁coffee	-10.7034
▁aplicar	-10.704
tter	-10.7042
work	-10.7043
49	-10.7048
▁1999	-10.7048
▁guy	-10.7048
▁protein	-10.7049
▁sabem	-10.7049
▁practical	-10.7049
tou	-10.7053
▁blue	-10.7053
▁forecast	-10.7054
▁married	-10.7055
isation	-10.7056
▁morreu	-10.7056
▁stated	-10.7064
▁establish	-10.7066
▁fabricante	-10.7069
▁Miami	-10.7076
▁heavy	-10.7076
▁fresh	-10.7077
▁differences	-10.708
adores	-10.7082
▁sal	-10.7083
▁closed	-10.7086
▁sample	-10.709
▁List	-10.7093
▁Ku	-10.7094
▁passageiros	-10.7094
▁tradicionais	-10.7097
▁Leia	-10.7097
▁testing	-10.71
▁direita	-10.71
▁camera	-10.7102
org	-10.7108
▁38	-10.7109
▁error	-10.7109
remos	-10.711
▁edifício	-10.7112
▁Justiça	-10.7118
▁Children	-10.7118
▁mouth	-10.7122
▁esperado	-10.7122
▁marido	-10.7123
▁hearing	-10.7125
▁ativos	-10.7126
>	-10.7131
▁Multi	-10.7133
▁interessante	-10.7134
▁vehicles	-10.714
▁Store	-10.7148
▁oferecem	-10.7151
▁HP	-10.7153
▁continues	-10.7153
▁participate	-10.7154
cri	-10.7155
▁Photos	-10.7155
▁gift	-10.7155
▁Year	-10.7159
izada	-10.716
▁situations	-10.7161
▁Carlos	-10.7161
▁background	-10.7161
▁sustentável	-10.7162
▁transformar	-10.7163
▁Congress	-10.7165
▁weapons	-10.7167
antes	-10.7167
▁Suites	-10.7168
▁tri	-10.7169
▁Plus	-10.7169
▁("	-10.7173
era	-10.7173
▁orgulho	-10.7173
▁MP	-10.7174
23	-10.7174
tz	-10.7174
▁Products	-10.7177
▁interview	-10.7178
▁Ki	-10.718
MP	-10.7182
▁Square	-10.7182
▁seleção	-10.7182
▁Texas	-10.7183
▁returned	-10.7186
▁Shi	-10.7187
▁ONU	-10.7188
MA	-10.7189
▁precisar	-10.7192
▁explained	-10.7193
▁TO	-10.7193
▁Manager	-10.7194
▁velho	-10.7199
har	-10.7203
▁League	-10.7204
▁Faça	-10.7205
▁Max	-10.7205
ep	-10.721
▁consumer	-10.7212
.°	-10.7214
▁interna	-10.7216
▁collected	-10.7216
▁speech	-10.7218
▁launch	-10.7218
▁cars	-10.722
▁street	-10.7222
▁imprensa	-10.7225
▁Síria	-10.7226
▁colaboração	-10.7226
▁equilíbrio	-10.7226
▁Quais	-10.7227
▁1:	-10.7227
66	-10.7233
my	-10.7234
TE	-10.7241
▁acabar	-10.7244
▁banho	-10.7247
▁academic	-10.7247
IA	-10.725
▁Space	-10.7251
▁últimas	-10.7257
eiros	-10.7265
▁database	-10.7266
▁block	-10.7266
▁van	-10.7267
IP	-10.7268
▁driver	-10.7268
▁advice	-10.7268
▁Acho	-10.7268
▁identificação	-10.7269
az	-10.7271
ban	-10.7273
47	-10.7274
▁preparar	-10.7276
▁Part	-10.7281
▁registro	-10.7281
100	-10.7288
▁shape	-10.7288
▁individuais	-10.729
▁nuvem	-10.729
▁revisão	-10.7291
▁carga	-10.7293
▁tend	-10.7296
▁introduced	-10.7297
pen	-10.7301
▁encontrados	-10.7303
▁chama	-10.7304
ee	-10.7305
2,	-10.7308
RI	-10.7309
▁específico	-10.731
▁transform	-10.731
▁evolution	-10.7311
▁depende	-10.7311
▁francês	-10.7312
▁Flash	-10.7313
pon	-10.7313
▁mode	-10.7313
▁agentes	-10.7316
▁Vo	-10.7316
▁instituição	-10.7318
▁loved	-10.732
▁recognized	-10.732
▁procurando	-10.7323
▁semelhantes	-10.733
▁Ab	-10.7331
▁declarou	-10.7333
▁fornecedores	-10.7341
▁fit	-10.7342
▁humanity	-10.7344
▁2015,	-10.7348
▁formed	-10.7352
idos	-10.7353
▁ones	-10.7358
▁IV	-10.736
▁wear	-10.7366
▁appeared	-10.7371
▁implica	-10.7376
sion	-10.7377
▁Press	-10.7377
▁Artigo	-10.7378
▁revolution	-10.7378
▁sexta	-10.7384
▁detailed	-10.7385
▁itens	-10.7388
don	-10.7391
▁maybe	-10.7396
▁Ju	-10.7398
▁inteligente	-10.7399
▁rural	-10.7399
▁Val	-10.74
▁pesca	-10.74
ros	-10.74
▁Monday	-10.7401
▁integração	-10.7401
van	-10.7403
▁mostram	-10.7404
▁cria	-10.7405
▁integral	-10.7406
▁nação	-10.7409
▁evaluation	-10.7409
▁Nem	-10.7414
nas	-10.7416
▁characters	-10.7416
▁sério	-10.7421
▁legislation	-10.7421
▁assessment	-10.7422
▁medicine	-10.7422
▁Price	-10.7422
▁agência	-10.7424
▁focused	-10.7424
▁supported	-10.7424
▁aims	-10.7425
▁quê	-10.7425
ability	-10.7429
▁slow	-10.7433
▁10%	-10.7433
▁lembrar	-10.7433
â	-10.7433
▁utilize	-10.7434
uro	-10.7438
▁emotional	-10.7439
TO	-10.7439
▁Fu	-10.744
▁debt	-10.7442
▁capable	-10.7444
▁eventually	-10.7445
▁determinado	-10.7445
▁1980	-10.7449
▁lojas	-10.745
▁ha	-10.745
zi	-10.7452
▁Rei	-10.7452
▁vivem	-10.7456
uri	-10.746
▁Sony	-10.7462
▁Journal	-10.7465
▁gerenciamento	-10.7465
▁category	-10.7465
▁driving	-10.7466
▁pop	-10.7467
▁eficiente	-10.7467
▁User	-10.7468
▁reino	-10.7468
▁count	-10.7473
48	-10.7474
▁atuais	-10.748
like	-10.7486
▁adapt	-10.7487
▁povos	-10.7489
▁restaurant	-10.7489
▁Chile	-10.749
▁confirmed	-10.7494
▁tornam	-10.7494
▁Micro	-10.7495
▁estudar	-10.7495
▁millions	-10.7495
▁carbono	-10.75
▁iron	-10.7502
▁decidir	-10.7507
▁Description	-10.7509
▁criteria	-10.7509
▁accommodation	-10.751
▁chief	-10.7511
▁peça	-10.7513
▁reservar	-10.7515
▁Melhor	-10.7516
▁increasingly	-10.7517
lic	-10.7521
▁RE	-10.7525
▁clara	-10.753
▁parar	-10.7536
▁Express	-10.7537
▁delivered	-10.7543
▁2:	-10.7546
uk	-10.7548
▁pensa	-10.7549
▁servidor	-10.7552
▁Jackson	-10.7554
▁moeda	-10.7556
íveis	-10.7559
▁mono	-10.756
with	-10.7564
▁Queen	-10.7565
▁route	-10.757
▁vindo	-10.7571
▁impossível	-10.7576
▁anunciou	-10.7576
▁acts	-10.7578
▁perspective	-10.7578
▁Plan	-10.7582
▁consequences	-10.7583
▁thank	-10.7584
▁Both	-10.7586
▁visitantes	-10.7586
▁TI	-10.7591
▁Key	-10.7594
mb	-10.7596
▁grátis	-10.7598
▁opiniões	-10.7598
▁seeking	-10.7598
▁currency	-10.7599
▁Night	-10.76
▁desenvolvido	-10.7602
▁investigation	-10.7602
▁transferência	-10.7602
▁package	-10.7604
▁Cat	-10.7606
▁park	-10.7609
▁associados	-10.7609
ky	-10.761
▁adicionar	-10.761
▁fãs	-10.761
▁infection	-10.7612
▁Vai	-10.762
▁constant	-10.762
▁university	-10.762
▁entry	-10.7622
▁tasks	-10.7624
▁muscle	-10.7624
▁CA	-10.7624
ai	-10.7626
▁Cloud	-10.7626
▁impedir	-10.7628
ris	-10.7628
RO	-10.7629
▁border	-10.7629
▁fundos	-10.763
▁PA	-10.7631
▁Ge	-10.7634
▁aren	-10.7638
ini	-10.7639
▁mistura	-10.764
han	-10.764
▁(“	-10.7642
▁format	-10.7642
▁úteis	-10.7643
▁pretty	-10.7643
ever	-10.7643
▁specifically	-10.7644
gia	-10.7647
▁apartamento	-10.7647
▁destas	-10.7651
▁thoughts	-10.7653
▁servir	-10.7653
▁leite	-10.7654
part	-10.7656
▁educational	-10.7658
▁vós	-10.7666
▁artist	-10.7666
▁espaços	-10.7667
▁therapy	-10.767
▁false	-10.7671
▁55	-10.7671
▁mid	-10.7674
▁pen	-10.7677
▁considerada	-10.7677
▁honor	-10.7678
ding	-10.7684
▁artista	-10.7686
▁máxima	-10.7688
▁Ru	-10.7688
▁exposure	-10.7688
».	-10.7688
▁Server	-10.7693
▁3.	-10.7693
▁terão	-10.7693
▁dificuldades	-10.7698
▁finding	-10.7701
▁Rights	-10.7704
▁circunstâncias	-10.7707
▁smart	-10.7708
▁habitantes	-10.7711
▁1960	-10.7712
▁120	-10.7715
▁tendência	-10.7716
ologia	-10.772
▁teacher	-10.7722
42	-10.7725
▁vast	-10.7727
▁carbon	-10.773
▁ahead	-10.7731
▁officials	-10.7734
Em	-10.7736
▁aberta	-10.7736
▁estejam	-10.7738
▁parceiro	-10.7739
▁Garden	-10.774
▁Right	-10.7742
▁Second	-10.7751
▁movimentos	-10.7751
sur	-10.7751
▁governos	-10.7754
▁express	-10.7755
▁Professor	-10.7756
▁acrescentou	-10.7756
▁videos	-10.7756
▁fashion	-10.7756
65	-10.7758
▁impostos	-10.7761
▁Ve	-10.7761
▁foods	-10.7766
▁Irã	-10.7766
▁Tempo	-10.7769
▁Ce	-10.7772
▁minute	-10.7775
▁claims	-10.7778
▁provável	-10.7778
▁ra	-10.7779
▁estratégias	-10.7783
▁partnership	-10.7786
▁objectives	-10.7791
▁accounts	-10.7798
▁critérios	-10.7799
▁Gu	-10.78
▁sorry	-10.7801
▁arma	-10.7802
▁cirurgia	-10.7802
▁approved	-10.7805
▁audience	-10.7808
▁curta	-10.781
use	-10.7814
▁ca	-10.7816
ec	-10.7816
▁teachers	-10.782
▁esquerda	-10.7826
▁Gen	-10.7829
▁copy	-10.783
▁gênero	-10.7833
▁ml	-10.7835
▁SE	-10.7836
▁Model	-10.7839
▁advertising	-10.7847
▁kg	-10.7849
▁Parque	-10.7849
▁Hill	-10.7854
▁formula	-10.7854
▁village	-10.7855
▁Trans	-10.7855
▁regulamento	-10.7855
▁instruments	-10.7858
▁contribuir	-10.7859
▁alterar	-10.7861
▁39	-10.7864
▁usadas	-10.7865
▁Help	-10.7867
tina	-10.7868
▁jantar	-10.787
▁limite	-10.7871
▁combat	-10.7872
▁quente	-10.7872
▁forced	-10.7874
▁Local	-10.7874
▁looked	-10.7882
▁brings	-10.7883
▁ma	-10.7884
▁seeing	-10.7886
▁Manual	-10.7893
▁humans	-10.7894
Ele	-10.7894
▁Harry	-10.7895
▁guarda	-10.7898
▁Frank	-10.7901
▁dormir	-10.7901
▁raised	-10.7901
▁publicação	-10.7901
▁<	-10.7902
▁discurso	-10.7902
▁ban	-10.7905
▁follows	-10.791
0.000	-10.7915
▁amazing	-10.7916
▁Za	-10.7917
▁Standard	-10.7917
▁IN	-10.7917
▁cedo	-10.792
▁Deve	-10.7921
▁Kim	-10.7925
▁objectivo	-10.7926
yl	-10.7928
ários	-10.7928
▁parque	-10.7928
▁graves	-10.7935
ford	-10.7936
▁começo	-10.7938
43	-10.7938
pel	-10.7938
▁aparência	-10.7939
▁recognize	-10.794
▁gender	-10.7942
ey	-10.7942
▁Col	-10.7944
▁concerns	-10.7944
▁financeiros	-10.7945
▁publicidade	-10.7948
▁econômica	-10.795
04	-10.7954
▁agency	-10.7955
▁Cap	-10.7955
▁shot	-10.7957
▁teach	-10.796
▁achieved	-10.7961
▁alcance	-10.7962
▁sessão	-10.7963
▁strategic	-10.7963
▁dura	-10.7964
▁integrated	-10.7967
▁estrela	-10.7968
▁rua	-10.7969
▁conference	-10.7973
ela	-10.7973
▁pronto	-10.7974
▁reforma	-10.7974
▁increases	-10.7977
07	-10.7977
▁harm	-10.7978
▁colegas	-10.798
rk	-10.798
cida	-10.7984
PC	-10.7984
▁extent	-10.7985
▁digitais	-10.7986
▁recuperação	-10.7986
▁Three	-10.7986
▁showing	-10.7988
▁antigos	-10.7989
▁estimated	-10.7989
▁elevado	-10.7991
▁enhance	-10.7995
ona	-10.7996
▁garden	-10.7997
mal	-10.8004
▁Out	-10.8007
▁promoção	-10.8009
▁kingdom	-10.8009
▁Valley	-10.801
▁welcome	-10.8011
▁instrument	-10.8011
▁fly	-10.8016
▁tree	-10.8018
idas	-10.8021
▁resulting	-10.8024
fu	-10.8025
▁permanente	-10.8026
▁element	-10.8027
▁corte	-10.8029
nia	-10.8031
▁taught	-10.8032
▁Ze	-10.8032
▁Nesse	-10.8034
▁semi	-10.8035
▁Guide	-10.8038
ped	-10.804
▁mesmas	-10.8042
▁cadeia	-10.8044
▁managed	-10.8048
▁Ali	-10.8052
▁2017,	-10.8054
▁fiscal	-10.8055
▁Salvador	-10.8057
▁órgãos	-10.806
▁Escola	-10.8062
▁mass	-10.8066
▁le	-10.8077
▁competitive	-10.8079
▁implementação	-10.808
▁Order	-10.808
▁Report	-10.8088
▁installation	-10.8093
▁pick	-10.8095
▁estrada	-10.8095
▁Encontre	-10.8096
▁autores	-10.8096
▁w	-10.8097
▁cargo	-10.8097
▁jornal	-10.81
▁Ministério	-10.8102
▁recognition	-10.8102
▁transmissão	-10.8102
▁Fort	-10.8104
▁cash	-10.8106
EL	-10.8106
▁Card	-10.8108
▁falando	-10.8112
To	-10.8113
ins	-10.8114
▁answers	-10.8116
▁instance	-10.8116
▁Peru	-10.8116
▁tentativa	-10.8116
▁fo	-10.8116
▁interno	-10.8123
▁direta	-10.8124
▁rádio	-10.8126
▁preocupação	-10.8126
▁Soviet	-10.8127
▁Moon	-10.8127
▁Keep	-10.8128
AN	-10.8128
▁File	-10.8131
▁pacote	-10.814
▁compras	-10.8141
▁familiares	-10.8142
▁prison	-10.8143
▁Mini	-10.8143
▁bo	-10.8144
ical	-10.8148
▁conclusão	-10.8149
▁essenciais	-10.8149
▁Donald	-10.8151
▁Informação	-10.8152
Pro	-10.816
▁melhoria	-10.8161
▁cenário	-10.8164
▁Economic	-10.8165
more	-10.8166
▁Nas	-10.8172
▁issued	-10.8173
▁sensação	-10.8173
▁quiet	-10.8174
▁Del	-10.8176
nic	-10.8177
▁struggle	-10.8179
▁founded	-10.8182
▁y	-10.8184
▁reflect	-10.8186
▁Team	-10.8188
▁privado	-10.8189
▁acaba	-10.8191
▁encontram	-10.8196
▁Contudo	-10.8197
▁YouTube	-10.8197
▁aprendizagem	-10.8198
bel	-10.8198
86	-10.82
▁Ten	-10.8204
▁agir	-10.8209
▁Learn	-10.821
vis	-10.8211
▁Pat	-10.8212
▁progresso	-10.8213
▁pan	-10.8215
85	-10.8215
▁reform	-10.8215
▁enfrentar	-10.8216
▁chain	-10.8219
▁Privacy	-10.8221
▁suffer	-10.8221
▁NASA	-10.8221
▁pensamentos	-10.8222
▁laser	-10.8222
▁corporate	-10.8223
▁mostrou	-10.8225
▁Vegas	-10.8227
zer	-10.8232
▁USD	-10.8235
▁perigo	-10.8236
▁europeu	-10.8238
▁2016,	-10.8244
▁literatura	-10.8244
▁funds	-10.8255
▁definir	-10.8256
ray	-10.8258
▁explicar	-10.8258
art	-10.8258
▁Minha	-10.8259
▁1000	-10.8261
▁discussion	-10.8262
▁600	-10.8262
▁ferro	-10.8263
▁Such	-10.8263
▁domain	-10.8264
▁desfrutar	-10.8264
ue	-10.8265
▁requer	-10.8267
▁mantém	-10.8268
AC	-10.8269
ney	-10.827
-10	-10.827
▁Qualquer	-10.827
▁boca	-10.8272
▁Ban	-10.8273
▁Jean	-10.8273
▁cap	-10.8273
rou	-10.8274
")	-10.8276
▁electric	-10.8276
▁licença	-10.8285
ware	-10.8286
▁funcionar	-10.8288
▁alerta	-10.8288
▁morto	-10.8288
▁chamar	-10.8289
▁conversa	-10.829
▁gets	-10.8293
▁alteração	-10.8294
▁Cruz	-10.83
▁estados	-10.8301
▁viajar	-10.8306
press	-10.831
▁nele	-10.8312
▁ocorrer	-10.8314
▁Treaty	-10.8317
▁Tuesday	-10.8317
▁matters	-10.8319
▁Johnson	-10.832
à	-10.8321
mann	-10.8326
▁min	-10.8327
lon	-10.833
▁Cross	-10.8331
▁vender	-10.8334
▁vitória	-10.8335
▁dance	-10.8336
▁Machine	-10.834
▁Access	-10.8341
▁recorded	-10.8346
▁wonderful	-10.835
▁terem	-10.8351
▁moderna	-10.8358
▁frio	-10.8358
▁celular	-10.8359
▁descoberta	-10.8361
bol	-10.8362
▁2012,	-10.8365
▁messages	-10.8369
▁1991	-10.8369
▁Pelo	-10.837
▁direto	-10.8371
▁passagem	-10.8373
▁chegada	-10.8373
▁expressed	-10.8375
▁fui	-10.8377
▁Bush	-10.8381
ene	-10.8383
▁mor	-10.8388
▁Entretanto	-10.8388
▁disposições	-10.8388
▁alimentação	-10.8389
▁surgery	-10.839
▁combined	-10.8393
EP	-10.8396
▁Main	-10.8397
ificação	-10.8397
46	-10.8406
▁Todo	-10.8406
OR	-10.8408
▁rosto	-10.8408
▁Trade	-10.8412
▁cobertura	-10.8412
▁Adam	-10.8415
but	-10.8415
▁removed	-10.8415
▁draw	-10.8417
EA	-10.8418
Be	-10.8419
▁milk	-10.8421
41	-10.8422
pri	-10.8424
sso	-10.8425
▁Kar	-10.8432
▁indica	-10.8432
▁reconhecer	-10.8433
▁felicidade	-10.8437
▁emergência	-10.8437
▁2018,	-10.8437
▁square	-10.8439
▁Quer	-10.8441
▁pó	-10.8441
▁(18	-10.8442
▁Tro	-10.8444
ow	-10.8444
▁guys	-10.8446
▁editor	-10.8446
▁relatórios	-10.8448
▁considera	-10.8448
▁nove	-10.8451
ella	-10.8453
▁Airlines	-10.8454
▁inform	-10.8457
-6	-10.8458
▁connect	-10.8458
▁utiliza	-10.846
▁buildings	-10.8461
▁shopping	-10.8461
▁eficácia	-10.8462
▁rain	-10.8465
ator	-10.8469
▁faster	-10.8473
▁agents	-10.8477
▁paragraph	-10.8481
▁médica	-10.8483
▁protected	-10.8483
▁complexo	-10.8485
▁confortável	-10.8485
▁operacional	-10.8486
▁Arab	-10.8486
▁Universal	-10.8486
▁mudou	-10.8486
▁tomada	-10.8487
▁conseguiu	-10.8488
▁sono	-10.8488
▁improved	-10.8489
▁Trip	-10.8489
▁Sir	-10.8491
▁Code	-10.8493
var	-10.8493
bus	-10.8501
▁Bre	-10.8504
▁atmosphere	-10.851
▁afraid	-10.851
▁domingo	-10.851
▁integration	-10.8511
▁Turkey	-10.8511
low	-10.8512
▁establishment	-10.8513
form	-10.8515
▁DVD	-10.8516
▁End	-10.8517
▁fighting	-10.8517
▁Call	-10.8518
▁server	-10.8526
▁roupas	-10.8529
▁retorno	-10.8529
▁250	-10.8532
▁residência	-10.8535
▁Organização	-10.8535
▁nomeadamente	-10.8536
▁Click	-10.8536
▁sharing	-10.8537
When	-10.8541
88	-10.8541
▁Bed	-10.8542
iana	-10.8546
SC	-10.8551
▁2002	-10.8556
NA	-10.8558
▁association	-10.8558
▁Alta	-10.8559
▁Instagram	-10.8559
▁conforto	-10.8559
▁assumir	-10.856
▁grace	-10.856
▁suitable	-10.856
▁Popular	-10.856
▁instrumento	-10.8572
▁começaram	-10.8578
ther	-10.8583
▁expansão	-10.8584
▁architecture	-10.8584
Ex	-10.8584
▁Henry	-10.8585
▁Vol	-10.8586
▁NO	-10.8587
▁doses	-10.8587
▁walking	-10.8588
▁registered	-10.8592
DA	-10.8594
▁lutar	-10.8596
ff	-10.8596
▁20%	-10.8596
▁Fire	-10.8596
▁investimentos	-10.8603
EM	-10.8604
▁Natural	-10.8605
▁jardim	-10.8608
▁milhão	-10.8608
▁Apartment	-10.8608
▁específica	-10.8609
▁duration	-10.861
▁renda	-10.8611
ces	-10.8615
tr	-10.8617
▁Far	-10.8617
ico	-10.8618
▁topo	-10.8621
▁fill	-10.8622
69	-10.8623
▁aimed	-10.8623
▁quinta	-10.8624
SI	-10.8625
▁deixe	-10.8631
▁represents	-10.8633
▁Iraque	-10.8633
▁Boston	-10.8633
ivo	-10.8634
pp	-10.8634
▁anual	-10.864
▁Film	-10.8641
▁couldn	-10.8645
▁temas	-10.865
▁permanecer	-10.8657
▁ultra	-10.8658
▁Ministry	-10.8658
▁fronteira	-10.8659
▁tickets	-10.866
▁Tel	-10.8664
64	-10.8664
▁mis	-10.8666
▁Award	-10.8669
▁trial	-10.8672
▁1)	-10.8673
▁entered	-10.8679
▁tradition	-10.868
▁Brown	-10.8683
sch	-10.8683
▁reducing	-10.8683
▁window	-10.8684
▁Primeiro	-10.8685
hr	-10.8685
▁recovery	-10.8685
▁personagem	-10.8686
▁anteriormente	-10.8689
COM	-10.8694
▁lies	-10.8697
▁tive	-10.8702
▁directed	-10.8708
▁Dubai	-10.8708
▁44	-10.8709
67	-10.8712
▁institution	-10.8714
▁exige	-10.8716
king	-10.8725
92	-10.8728
▁expand	-10.8728
▁noted	-10.8729
▁2010,	-10.873
▁OK	-10.873
▁vitamina	-10.8733
▁combustível	-10.8733
▁expensive	-10.8733
▁poverty	-10.8733
▁forem	-10.8733
ân	-10.874
▁smaller	-10.8742
ari	-10.8743
▁records	-10.8745
rin	-10.8748
▁audio	-10.8756
▁kitchen	-10.8758
cul	-10.8759
▁receita	-10.8761
▁escrita	-10.8769
78	-10.877
PE	-10.877
▁effectively	-10.8774
▁waiting	-10.8782
▁abuse	-10.8782
▁Academy	-10.8783
▁aniversário	-10.8783
▁Latina	-10.8784
▁categorias	-10.8785
book	-10.8785
▁medium	-10.8786
▁holiday	-10.8786
▁primeiras	-10.8786
▁army	-10.8788
▁election	-10.8788
▁alemão	-10.8792
xo	-10.8792
act	-10.8793
▁Yu	-10.8799
▁radical	-10.88
▁depression	-10.88
▁raise	-10.8803
▁Congresso	-10.8803
▁youth	-10.8805
▁neither	-10.8808
▁terceira	-10.8809
▁azul	-10.8809
▁Obrigado	-10.8809
▁equipped	-10.881
▁tells	-10.8811
▁significativo	-10.8813
▁Iraq	-10.8814
▁utilizada	-10.8816
▁motivos	-10.8818
▁pobres	-10.8819
▁entirely	-10.8824
▁imagine	-10.8825
ned	-10.8828
▁promise	-10.8828
▁songs	-10.8831
▁wood	-10.8833
▁arquitetura	-10.8833
▁protecção	-10.8833
▁agencies	-10.8834
▁julgamento	-10.8834
xa	-10.8836
▁Mother	-10.8837
▁Estudos	-10.8838
▁foot	-10.8838
▁Pois	-10.8838
▁tecido	-10.8838
▁engineering	-10.8839
▁victims	-10.884
▁acerca	-10.8841
▁prove	-10.8842
▁Near	-10.8846
ev	-10.8847
EEC	-10.8847
pl	-10.885
▁cão	-10.8853
09	-10.8853
▁encourage	-10.8853
▁relativas	-10.8856
▁Ocean	-10.8856
▁okay	-10.8859
▁disposição	-10.8859
▁remover	-10.8859
▁Comentários	-10.8863
▁implement	-10.8864
▁employment	-10.8865
▁Hostel	-10.8866
2)	-10.8866
▁Series	-10.8868
▁coloca	-10.887
▁explorar	-10.8873
▁Very	-10.8875
▁signal	-10.8875
▁EUR	-10.8877
▁extreme	-10.8879
▁Luz	-10.888
▁Force	-10.8881
▁globais	-10.8884
▁sofrimento	-10.8884
▁versões	-10.8884
▁orientação	-10.8885
▁contacto	-10.8885
▁behalf	-10.8886
▁30%	-10.8888
AM	-10.8888
▁smartphone	-10.889
87	-10.889
▁sozinho	-10.8891
▁sorte	-10.8891
▁formation	-10.8895
ium	-10.89
well	-10.8903
▁moda	-10.8905
▁survey	-10.8905
▁permanece	-10.8907
▁communications	-10.891
▁engenharia	-10.8911
▁meat	-10.8914
▁°	-10.8916
▁hundred	-10.8916
▁Color	-10.8921
▁Maybe	-10.8928
▁Industrial	-10.8929
▁adult	-10.8935
▁prevenção	-10.8935
▁understood	-10.8935
▁adopt	-10.8937
▁compare	-10.8938
▁genetic	-10.8938
▁Seja	-10.894
▁causas	-10.894
▁Content	-10.8941
▁organized	-10.8941
▁Material	-10.8942
-4	-10.8944
▁2013,	-10.8946
ín	-10.895
▁remote	-10.8955
▁Pesquisa	-10.8956
▁intervenção	-10.8961
▁mine	-10.8963
▁profunda	-10.8964
▁Without	-10.8965
▁Mobile	-10.8965
▁scene	-10.8967
▁destination	-10.8968
▁vinho	-10.8969
ik	-10.8973
▁cast	-10.8981
57	-10.8983
▁realizados	-10.8986
▁1997	-10.8988
▁Produtos	-10.8989
▁utilizador	-10.899
▁command	-10.8992
▁worse	-10.8992
▁querer	-10.8995
▁defender	-10.8996
▁(4	-10.8997
room	-10.9002
▁solve	-10.9004
▁banks	-10.9005
▁planta	-10.9009
▁Compare	-10.9009
▁studied	-10.9012
▁Egito	-10.9012
▁painel	-10.9015
76	-10.9015
▁vêm	-10.9016
▁luxo	-10.9016
sis	-10.9018
▁edge	-10.9019
▁sit	-10.9019
dependentemente	-10.9022
Por	-10.9022
▁Explore	-10.9026
▁Podemos	-10.9026
▁elemento	-10.903
98	-10.9033
▁collaboration	-10.9038
▁móvel	-10.9038
▁tea	-10.9038
▁Gestão	-10.9038
▁corretamente	-10.904
Al	-10.9041
▁nasceu	-10.9041
▁meant	-10.9045
▁Fi	-10.9046
▁assuntos	-10.9047
▁trabalham	-10.9054
▁neuro	-10.9057
▁literature	-10.9064
▁Conference	-10.9064
▁permitindo	-10.9064
▁Sempre	-10.9067
illa	-10.9072
▁worry	-10.9076
▁Does	-10.9086
▁comprehensive	-10.9089
▁naquele	-10.909
▁Hollywood	-10.909
▁Bu	-10.9092
▁sons	-10.9095
▁Share	-10.9096
▁print	-10.9096
▁WEB	-10.9099
▁Palavra	-10.91
▁festa	-10.91
▁parede	-10.91
▁2014,	-10.9102
▁perceber	-10.9105
▁corrida	-10.9105
▁asking	-10.9106
ig	-10.9106
72	-10.9106
▁americana	-10.9112
▁agente	-10.9113
▁difíceis	-10.9115
▁infecção	-10.9115
▁chá	-10.9116
▁gerais	-10.9117
▁Jan	-10.912
▁2008,	-10.9122
▁speaking	-10.9123
▁Steel	-10.9125
▁utilizadores	-10.9126
▁propostas	-10.9132
▁Americans	-10.9133
▁governments	-10.9133
▁aceita	-10.9134
▁amostra	-10.9138
▁kinds	-10.9139
▁limpeza	-10.9141
▁manufacturing	-10.9142
▁football	-10.9144
▁transformação	-10.9144
▁opt	-10.9145
▁controlled	-10.9147
▁Via	-10.9148
▁liga	-10.9154
▁Tim	-10.9159
▁pictures	-10.916
▁buscar	-10.9163
▁r	-10.9163
▁Metal	-10.9164
▁alcohol	-10.9166
▁caráter	-10.9168
▁doutrina	-10.9168
▁pregnancy	-10.9168
▁acabou	-10.9168
▁Quero	-10.9169
▁parecem	-10.9174
▁handle	-10.9176
▁contrast	-10.9177
ski	-10.9178
▁janela	-10.9179
▁entra	-10.9181
▁ruas	-10.9183
▁powers	-10.9189
▁consciousness	-10.9194
▁tradução	-10.9196
56	-10.9197
▁envolve	-10.9197
tica	-10.9198
▁constantly	-10.92
▁Total	-10.92
idades	-10.9204
▁aparece	-10.9204
▁intenção	-10.9209
ot	-10.921
▁stored	-10.9211
ip	-10.9211
AP	-10.9212
▁Prince	-10.9216
▁Gra	-10.9217
▁Set	-10.9226
ane	-10.9232
▁Marketing	-10.9233
▁edition	-10.9233
▁suggest	-10.9234
▁reaction	-10.9235
▁estruturas	-10.9238
▁aproveitar	-10.9239
▁evening	-10.924
▁counter	-10.9243
▁tráfego	-10.9246
▁Médio	-10.9246
▁Mel	-10.9249
▁Boa	-10.925
▁4.	-10.9252
2.	-10.9253
59	-10.9255
▁altos	-10.9257
▁oposição	-10.9259
▁piscina	-10.9259
▁iria	-10.926
nha	-10.9262
▁murder	-10.9263
▁tele	-10.9266
▁Nu	-10.9267
▁águas	-10.9269
▁deveriam	-10.9271
▁sentimentos	-10.9271
▁divine	-10.9273
▁pobreza	-10.9273
▁Grécia	-10.9273
▁Through	-10.9274
▁agências	-10.9274
▁ganhou	-10.9275
▁Cursos	-10.9276
▁humor	-10.9276
▁Dar	-10.928
▁Heart	-10.9282
▁Point	-10.9285
▁instructions	-10.9286
▁associado	-10.9288
MO	-10.9296
dic	-10.9296
▁worship	-10.9299
▁Jerusalém	-10.9299
▁pleasure	-10.9299
▁Ireland	-10.9299
▁labour	-10.9299
▁democracia	-10.9301
▁Pet	-10.9303
indo	-10.9304
▁coleta	-10.9305
▁Sch	-10.9306
eta	-10.9308
▁nine	-10.9308
▁hate	-10.9309
▁Prime	-10.9313
▁dificuldade	-10.9313
▁alternativa	-10.9314
▁Ford	-10.9314
▁net	-10.9315
▁improvement	-10.9316
▁feelings	-10.9317
▁produz	-10.9318
▁criada	-10.9319
▁limits	-10.9322
▁EC	-10.9325
▁drama	-10.9325
▁jamais	-10.9326
▁Palace	-10.9326
▁massive	-10.9327
▁consulta	-10.9328
▁Coreia	-10.9328
83	-10.9328
▁concorda	-10.9335
▁estrangeiros	-10.9337
▁ad	-10.9338
TS	-10.9339
▁wouldn	-10.934
▁executive	-10.9341
wi	-10.9341
▁assets	-10.9346
▁wealth	-10.9349
▁estresse	-10.9353
▁Segunda	-10.9353
▁compliance	-10.9354
▁studio	-10.9354
▁regulations	-10.9357
58	-10.9364
▁widely	-10.9366
▁músicas	-10.9368
▁gerar	-10.9372
▁Ger	-10.9376
▁Britain	-10.9379
▁tradição	-10.9379
ight	-10.9379
▁precisão	-10.9379
▁keeping	-10.9379
▁terreno	-10.938
▁Start	-10.9381
▁frequently	-10.9385
▁forest	-10.9386
▁fund	-10.9386
▁translation	-10.9395
▁comando	-10.9396
CI	-10.9397
▁elevada	-10.9398
▁Israeli	-10.9401
▁ice	-10.9405
▁destruição	-10.9406
▁entrou	-10.9406
▁ambientais	-10.9406
▁occurred	-10.9406
▁descobriu	-10.9408
▁Four	-10.9408
▁técnicos	-10.9409
)*	-10.9412
▁1996	-10.9415
▁mini	-10.9419
▁Direitos	-10.9419
▁conclusion	-10.9422
▁faixa	-10.9422
▁benefício	-10.9426
▁immediate	-10.9427
▁settings	-10.9428
ification	-10.9429
▁dialogue	-10.9433
▁anúncio	-10.9437
▁Mag	-10.9438
▁emissões	-10.9439
▁calling	-10.9443
▁Olá	-10.9448
▁escape	-10.9449
▁conselho	-10.945
▁construído	-10.945
▁queda	-10.945
▁saved	-10.9456
▁computadores	-10.9458
▁Junho	-10.946
▁coleção	-10.946
ero	-10.9461
▁praticamente	-10.9461
▁club	-10.9462
▁ce	-10.9464
▁detail	-10.9465
▁conhecidos	-10.947
ified	-10.9471
▁Parece	-10.9472
DS	-10.9477
▁conferência	-10.9478
▁plástico	-10.9478
▁OS	-10.9481
▁fome	-10.9485
▁artistas	-10.9485
▁vantagem	-10.9486
▁álcool	-10.9486
▁oficiais	-10.9486
▁emergency	-10.9486
▁recomendações	-10.9487
▁Partido	-10.9487
▁sweet	-10.9488
▁Nature	-10.9489
▁subjects	-10.9491
▁destroy	-10.9491
▁preto	-10.9492
▁PDF	-10.9493
▁drop	-10.9494
▁refer	-10.9496
▁technique	-10.9505
▁index	-10.9506
AD	-10.9508
met	-10.951
▁Test	-10.951
Mo	-10.9512
61	-10.9512
▁improving	-10.9513
▁satisfação	-10.9513
▁feedback	-10.9514
▁virus	-10.9515
▁Agency	-10.9516
▁consequências	-10.9517
▁feed	-10.952
▁aplicável	-10.952
▁meia	-10.9523
▁suggests	-10.9527
lis	-10.9531
ving	-10.9531
▁europeia	-10.9532
▁entidade	-10.9532
▁hell	-10.9534
▁authors	-10.9538
▁pôr	-10.954
▁blockchain	-10.954
▁comment	-10.9541
▁senior	-10.9541
▁Stock	-10.9543
▁Room	-10.9543
uff	-10.9544
▁Lady	-10.9544
84	-10.9545
▁Islamic	-10.9546
related	-10.9547
▁trem	-10.9549
▁ended	-10.9551
▁reserve	-10.9551
77	-10.9552
▁Nesta	-10.9555
▁dollars	-10.9556
▁Terms	-10.9565
▁Pra	-10.9567
▁bathroom	-10.9568
▁Rose	-10.957
7%	-10.9572
▁centros	-10.9578
▁dando	-10.9578
▁Steve	-10.958
cent	-10.9581
▁Ano	-10.9582
▁segundos	-10.9584
▁Bob	-10.9585
▁dynamic	-10.959
▁estúdio	-10.9595
▁concentração	-10.9596
▁river	-10.9603
▁aviso	-10.9605
▁joined	-10.9609
▁mention	-10.961
▁indicate	-10.9611
▁fiz	-10.9612
▁depressão	-10.9614
▁contribution	-10.9615
▁Abu	-10.9616
▁acreditam	-10.9617
▁artists	-10.9618
Me	-10.962
▁2011,	-10.9622
▁Outubro	-10.9622
▁sequência	-10.9622
▁Passagens	-10.9622
xceto	-10.9623
▁Category	-10.9623
▁esteve	-10.9623
▁indeed	-10.9623
▁Saturday	-10.9623
Ha	-10.9625
▁fornecedor	-10.9626
▁taste	-10.9626
53	-10.9627
▁dada	-10.963
head	-10.963
tório	-10.9631
▁continuam	-10.9633
▁apps	-10.9638
▁operate	-10.9639
▁analyze	-10.964
▁comments	-10.9641
▁MA	-10.9641
ima	-10.9644
▁Ber	-10.9644
▁Box	-10.9646
▁contínua	-10.965
▁Studies	-10.965
▁Julho	-10.965
▁legais	-10.965
▁negociação	-10.965
▁Associação	-10.965
▁PE	-10.9651
▁disponibilidade	-10.9652
▁lar	-10.9652
▁alvo	-10.9653
▁existir	-10.9653
▁Place	-10.9653
▁owner	-10.9659
são	-10.966
cf	-10.9663
03	-10.9663
▁haverá	-10.9663
▁Line	-10.9667
▁export	-10.967
▁Louis	-10.967
▁Way	-10.9674
▁Outro	-10.9676
▁manufacturer	-10.9678
▁Medical	-10.9678
▁Mike	-10.9678
▁classificação	-10.9678
▁instalar	-10.9681
▁Sky	-10.9682
▁holy	-10.9682
▁medicamento	-10.9685
▁quilômetros	-10.9689
▁dates	-10.969
▁projecto	-10.9694
▁veja	-10.9697
▁PS	-10.9697
▁terminar	-10.9701
mentos	-10.9701
▁positivo	-10.9702
▁closely	-10.9703
▁gravidez	-10.9705
▁Iorque	-10.9705
▁intellectual	-10.9705
▁Moscow	-10.9705
▁Homem	-10.9706
▁culpa	-10.9707
gas	-10.9708
rar	-10.9708
▁apresentado	-10.9709
▁consideração	-10.971
89	-10.9711
▁alive	-10.9715
▁strengthen	-10.9717
▁knowing	-10.9719
▁pieces	-10.9719
51	-10.9721
▁pudesse	-10.9722
▁cai	-10.9727
▁belief	-10.9728
▁económica	-10.9729
▁pedra	-10.9729
▁exists	-10.9732
ON	-10.9732
▁Jerusalem	-10.9732
▁saudáveis	-10.9732
▁Florida	-10.9732
▁Name	-10.9733
▁fabricação	-10.9734
▁Yo	-10.9735
▁leaves	-10.9735
▁machines	-10.9738
▁occurs	-10.974
ani	-10.9743
pur	-10.975
▁diminuir	-10.9751
▁cards	-10.9752
town	-10.9752
▁ocorreu	-10.9755
▁Arte	-10.9755
▁famoso	-10.9756
▁muda	-10.9756
▁técnico	-10.9756
▁41	-10.9758
▁conteúdos	-10.9758
▁evidências	-10.9758
▁liquid	-10.9759
▁tribunal	-10.976
▁acessórios	-10.976
▁Claro	-10.9762
▁holding	-10.9763
79	-10.9764
-5	-10.9764
▁dogs	-10.9767
▁rent	-10.9769
▁acção	-10.9775
tis	-10.9777
▁pure	-10.9781
▁cardiovascular	-10.9788
▁happiness	-10.9788
▁sabedoria	-10.9788
▁technological	-10.9788
▁Thursday	-10.9789
▁acredito	-10.9789
box	-10.9789
▁exame	-10.979
▁haven	-10.9791
.1	-10.9793
tado	-10.9802
af	-10.9802
▁detect	-10.9804
kg	-10.9805
voz	-10.981
▁Gal	-10.9811
▁habilidade	-10.9813
long	-10.9813
52	-10.9814
▁Dezembro	-10.9816
▁expansion	-10.9816
▁Convenção	-10.9816
▁consumidor	-10.9816
▁cães	-10.9816
▁especificamente	-10.9816
▁duty	-10.9817
ius	-10.9817
▁awareness	-10.9818
▁meters	-10.9819
▁brothers	-10.982
nica	-10.9822
▁AC	-10.9825
▁Bur	-10.9833
▁relevantes	-10.9833
▁chamados	-10.9834
▁2)	-10.9834
ense	-10.9835
iano	-10.9837
▁ticket	-10.9841
▁chocolate	-10.9843
▁receiving	-10.9843
▁enemy	-10.9844
▁Casino	-10.9844
▁Protection	-10.9844
▁Educação	-10.9844
▁insurance	-10.9845
cus	-10.9845
▁Clique	-10.9845
▁discussão	-10.9846
▁80%	-10.9847
▁Finally	-10.9848
▁mark	-10.9849
▁Senhora	-10.9851
▁height	-10.9852
▁dress	-10.9854
avi	-10.9856
sy	-10.9862
▁Mapa	-10.9863
▁resíduos	-10.9864
▁facilitate	-10.9865
▁ficam	-10.9867
ö	-10.9869
▁transition	-10.9869
SS	-10.987
▁Cur	-10.987
▁fell	-10.987
▁intervention	-10.987
▁Breakfast	-10.9872
▁Empire	-10.9872
▁recommendations	-10.9872
▁fundamentais	-10.9872
▁Comité	-10.9872
▁Wednesday	-10.9872
▁preparação	-10.9873
▁aprovação	-10.9874
▁Instead	-10.9874
▁figura	-10.9874
▁permanent	-10.9878
ok	-10.988
▁fixed	-10.9882
lé	-10.9882
▁lay	-10.9884
▁hurt	-10.9886
▁eternal	-10.9889
▁aspecto	-10.9889
▁bone	-10.9893
▁Sin	-10.9895
▁Intel	-10.9896
▁bases	-10.9898
▁potência	-10.9898
▁Greece	-10.99
▁district	-10.99
▁negociações	-10.99
▁democracy	-10.9901
▁decidiu	-10.9901
▁Review	-10.9901
▁combater	-10.9903
fin	-10.9907
▁externa	-10.9909
▁fabricantes	-10.991
▁lu	-10.9913
▁aplica	-10.9916
EU	-10.9916
▁Bom	-10.9917
▁depends	-10.9917
ática	-10.9923
▁college	-10.9928
▁apresentou	-10.9928
▁realizadas	-10.9929
▁Little	-10.9929
▁revolução	-10.9929
▁ativo	-10.993
▁Army	-10.9932
▁forth	-10.9933
lie	-10.9934
▁percentage	-10.9935
nda	-10.9935
▁Market	-10.9936
▁ta	-10.9936
▁foundation	-10.9937
ably	-10.9938
▁3:	-10.9938
cio	-10.9939
▁sugere	-10.9941
▁mix	-10.9942
ografia	-10.9943
▁executar	-10.9946
My	-10.9949
▁containing	-10.9951
▁amar	-10.9954
▁films	-10.9954
▁judgment	-10.9957
▁invés	-10.9957
▁Among	-10.9957
▁sight	-10.9957
▁Mount	-10.9957
tus	-10.9957
▁substâncias	-10.9958
ón	-10.9959
▁port	-10.9959
▁Qualidade	-10.9959
▁agricultural	-10.9959
▁tenta	-10.9959
▁classic	-10.9961
▁custom	-10.9961
ral	-10.9961
▁poderes	-10.9963
▁Joe	-10.9966
▁cristã	-10.997
lia	-10.9976
▁Vice	-10.9978
▁Capital	-10.9979
▁findings	-10.9982
But	-10.9982
▁ritmo	-10.9984
CC	-10.9985
▁laboratório	-10.9985
▁description	-10.9985
▁devo	-10.9986
RC	-10.9989
▁transformation	-10.9994
▁Restaurant	-10.9996
ob	-10.9996
▁canais	-11.0004
#	-11.0006
▁ID	-11.0008
▁sufficient	-11.0008
▁manager	-11.0009
▁nota	-11.0011
▁bottom	-11.0013
▁blind	-11.0013
ré	-11.0013
▁initiative	-11.0014
▁Putin	-11.0016
▁laid	-11.0016
▁organic	-11.0016
▁spot	-11.0019
▁43	-11.002
▁terminal	-11.0021
▁haviam	-11.0022
wing	-11.0023
ments	-11.0023
▁cable	-11.0025
▁missing	-11.0026
▁Radio	-11.0029
▁providers	-11.0031
▁sp	-11.0031
▁Pu	-11.0035
▁unto	-11.0036
▁navios	-11.004
▁Age	-11.004
96	-11.004
▁infância	-11.0041
▁Dublin	-11.0041
▁Apartments	-11.0042
▁Er	-11.0042
▁diversidade	-11.0042
▁evidência	-11.0043
▁availability	-11.0043
▁exercícios	-11.0044
▁happening	-11.0046
izados	-11.0047
▁beber	-11.0048
▁bear	-11.0049
▁consistent	-11.0049
bil	-11.0052
▁navio	-11.0055
▁chances	-11.0055
▁Qu	-11.0056
ath	-11.0059
▁1992	-11.006
▁portas	-11.0063
▁wonder	-11.0065
▁seconds	-11.0066
ique	-11.0069
▁recém	-11.007
tors	-11.007
▁Hitler	-11.007
▁chronic	-11.0071
▁prêmio	-11.0072
▁wild	-11.0072
Mas	-11.0073
▁Mãe	-11.0073
▁privada	-11.0073
CEE	-11.0074
▁perfeitamente	-11.0075
▁raça	-11.0076
▁revela	-11.0077
▁deverão	-11.0077
▁varia	-11.0078
▁sentimento	-11.0079
▁motion	-11.008
▁segue	-11.0084
▁filled	-11.0086
ena	-11.0086
▁frequent	-11.0088
▁reação	-11.0093
▁Which	-11.01
▁fábrica	-11.0102
ken	-11.0106
€	-11.0108
▁AND	-11.0108
▁pet	-11.0114
▁composto	-11.0119
▁2009,	-11.012
▁upper	-11.012
▁trend	-11.0122
▁exclusive	-11.0123
▁moderno	-11.0123
▁probabilidade	-11.0127
▁dupla	-11.0127
▁atualização	-11.013
bin	-11.0131
▁session	-11.0133
called	-11.0135
▁soft	-11.0135
▁Às	-11.0137
▁supporting	-11.0138
▁symbol	-11.0138
▁envolvidos	-11.0139
éis	-11.0141
▁decade	-11.0141
▁ci	-11.0144
▁tarifas	-11.0145
▁Foram	-11.0146
ising	-11.0151
▁Golden	-11.0152
▁willing	-11.0153
vir	-11.0155
▁atmosfera	-11.0156
▁conosco	-11.0156
▁agradável	-11.0156
▁Expedia	-11.0158
▁eliminar	-11.0158
new	-11.0159
▁Regional	-11.016
▁assistir	-11.016
▁reduz	-11.0162
▁verdadeiramente	-11.0162
▁bateria	-11.0162
▁emissions	-11.0163
▁culturais	-11.0166
▁Ed	-11.0167
▁ajudam	-11.017
▁garante	-11.017
▁fourth	-11.0171
▁descrição	-11.0175
▁decrease	-11.0176
▁navegador	-11.0178
▁demands	-11.0179
91	-11.018
▁warm	-11.0181
Le	-11.0183
ons	-11.0183
▁selling	-11.0184
▁chão	-11.0185
▁Berlim	-11.0186
▁correta	-11.0186
▁sitting	-11.0187
▁anywhere	-11.0187
▁alojamento	-11.0189
▁diária	-11.0191
gin	-11.0191
▁umidade	-11.0196
▁pi	-11.0199
▁booking	-11.02
fund	-11.021
▁bringing	-11.0211
▁cair	-11.0212
▁closer	-11.0213
▁dimensão	-11.0214
▁philosophy	-11.0214
▁twice	-11.0214
▁valid	-11.0214
▁amplo	-11.0215
▁arms	-11.0215
▁Organization	-11.0217
▁termina	-11.0217
▁índice	-11.0219
▁idéia	-11.0219
▁adolescentes	-11.0219
▁amplamente	-11.022
▁soldados	-11.0222
Lo	-11.0224
▁indicated	-11.0225
AT	-11.0225
▁aspect	-11.0226
Ro	-11.0226
▁Logo	-11.023
ér	-11.0234
▁Area	-11.0236
down	-11.0238
▁Maio	-11.0238
▁categories	-11.0243
▁comprimento	-11.0243
▁frequency	-11.0245
▁recuperar	-11.0246
▁sobretudo	-11.0246
▁absolutely	-11.0248
▁apresentam	-11.0248
▁declared	-11.0249
▁pastor	-11.025
▁chuva	-11.0251
▁pray	-11.0251
ric	-11.0251
RS	-11.0252
▁Oil	-11.0255
▁tratados	-11.0267
▁46	-11.0268
▁Puerto	-11.0272
▁centuries	-11.0272
▁Turquia	-11.0272
▁sought	-11.0272
▁reuniões	-11.0272
▁igualdade	-11.0273
▁salvação	-11.0273
▁montante	-11.0275
▁atitude	-11.0278
▁definition	-11.028
▁flu	-11.028
▁vosso	-11.028
▁failed	-11.0281
▁ácido	-11.0281
med	-11.0282
▁sister	-11.0283
▁Juan	-11.0288
▁organisation	-11.0295
▁consists	-11.0296
pos	-11.0296
▁sinto	-11.0301
▁resolve	-11.0302
▁expertise	-11.0302
▁glory	-11.0302
▁conversão	-11.0302
▁posições	-11.0305
▁register	-11.0308
Reuters	-11.0312
▁organismo	-11.0312
Quando	-11.0312
▁1994	-11.0316
▁Brand	-11.0316
▁Case	-11.0318
lig	-11.0318
▁gene	-11.0321
▁considerados	-11.0321
▁monte	-11.0321
▁Amsterdam	-11.0331
▁comparison	-11.0331
▁planned	-11.0332
▁Xbox	-11.0332
▁cal	-11.0332
▁Ninguém	-11.0335
▁encontrará	-11.0338
▁associada	-11.034
54	-11.034
▁Chris	-11.0345
▁terça	-11.0345
▁espanhol	-11.0347
▁genes	-11.0351
▁Francis	-11.0355
▁exact	-11.0356
PS	-11.0359
▁Travelocity	-11.036
▁tomorrow	-11.036
▁Weather	-11.036
▁breakfast	-11.036
▁Saiba	-11.0361
▁salvation	-11.0361
▁Smart	-11.0362
▁interpretation	-11.0362
▁winter	-11.0363
enta	-11.0363
▁ME	-11.0363
▁leste	-11.0363
▁Thanks	-11.0367
▁ensinar	-11.0368
▁finished	-11.0368
▁destroyed	-11.0371
▁Agência	-11.0372
▁channel	-11.0372
▁Ball	-11.0374
dra	-11.0375
▁install	-11.0375
▁miss	-11.0375
▁contained	-11.0376
▁candidatos	-11.0377
▁perguntar	-11.0379
▁Cabo	-11.0381
▁apart	-11.0387
clu	-11.0388
▁Young	-11.0389
▁Atualmente	-11.039
▁causing	-11.039
▁relating	-11.039
▁Fal	-11.039
▁filosofia	-11.039
▁Sometimes	-11.0391
▁bebidas	-11.0391
▁despesas	-11.0394
▁Places	-11.0396
▁arrived	-11.0396
▁Nice	-11.0402
▁experiment	-11.0405
▁fator	-11.0413
NO	-11.0417
▁Full	-11.0418
▁historic	-11.0418
▁fornecimento	-11.0419
▁Switzerland	-11.042
▁pedidos	-11.0421
▁pratos	-11.0422
▁1998	-11.0423
mont	-11.0426
▁unable	-11.0428
far	-11.0429
▁crítica	-11.043
which	-11.043
▁impression	-11.0433
▁poderoso	-11.0433
▁línguas	-11.0437
▁rico	-11.0445
▁sectors	-11.0446
▁Suíça	-11.0449
▁Acordo	-11.0449
▁reliable	-11.0449
▁sábado	-11.045
onic	-11.045
nder	-11.0451
▁priority	-11.0451
▁concentration	-11.0459
▁Sp	-11.0463
▁seção	-11.0465
▁meetings	-11.0469
▁precise	-11.0473
▁quarter	-11.0477
▁Verde	-11.0477
▁Executive	-11.0479
▁jornada	-11.0479
▁District	-11.0479
▁quantidades	-11.0479
▁transição	-11.0479
▁stuff	-11.0479
▁Netherlands	-11.0479
▁broken	-11.0481
▁ponta	-11.0482
▁72	-11.0482
▁constantemente	-11.0484
▁granted	-11.0486
▁resort	-11.0489
▁Dois	-11.0492
An	-11.0494
ME	-11.0498
▁regra	-11.0498
▁baixar	-11.0501
▁Previous	-11.0503
lt	-11.0505
▁sport	-11.0508
▁battery	-11.0508
▁wisdom	-11.0508
▁committee	-11.0508
▁Reserve	-11.0509
▁submitted	-11.051
▁ja	-11.051
▁spring	-11.0511
▁Scott	-11.0512
▁Mil	-11.0512
▁1993	-11.0519
▁substance	-11.052
▁brasileiro	-11.052
▁EN	-11.0521
▁Jim	-11.0522
▁th	-11.0523
▁cool	-11.0524
▁Outras	-11.0524
rian	-11.0525
▁sensor	-11.0525
▁passion	-11.0527
▁forever	-11.0528
▁none	-11.0531
▁observe	-11.0534
árias	-11.0535
▁salt	-11.0535
▁proporciona	-11.0536
▁Trabalho	-11.0538
▁arrival	-11.0538
▁inverno	-11.0539
▁comunicações	-11.0539
▁Justice	-11.0539
▁emoções	-11.0539
▁Guia	-11.0539
▁Yet	-11.0541
▁concluded	-11.0542
▁typically	-11.0543
▁cup	-11.0546
▁invest	-11.0547
Car	-11.0548
▁award	-11.0549
▁mecanismo	-11.0551
▁tablet	-11.0553
▁warning	-11.0555
OL	-11.0556
▁medicina	-11.056
▁Ur	-11.0561
vida	-11.0565
▁supposed	-11.0566
▁structures	-11.0566
tribu	-11.0567
▁52	-11.0568
▁Private	-11.0568
▁conversion	-11.0569
▁colors	-11.057
▁exploração	-11.057
▁score	-11.0573
▁Base	-11.0575
mu	-11.0576
Como	-11.0578
▁marked	-11.0579
▁passengers	-11.0579
▁olho	-11.0581
▁festival	-11.0581
▁ótimo	-11.0581
▁cheio	-11.0581
▁Bad	-11.0582
presidente	-11.0583
PO	-11.0584
▁trouble	-11.0585
▁backup	-11.0587
▁evaluate	-11.059
300	-11.0593
ração	-11.0594
ges	-11.0596
▁spending	-11.0597
▁novel	-11.0598
ENT	-11.0598
▁possibly	-11.0599
▁obrigações	-11.0599
▁á	-11.0599
▁pediu	-11.0601
▁honra	-11.0601
▁sad	-11.0602
▁u	-11.0607
▁aérea	-11.0612
▁religiosa	-11.0613
▁vermelho	-11.0614
▁amanhã	-11.0615
▁terapia	-11.0616
▁beat	-11.0617
▁defend	-11.062
▁lançar	-11.062
▁seguros	-11.0622
▁remained	-11.0624
▁conflitos	-11.0626
▁Tecnologia	-11.0629
▁romance	-11.0629
▁eleições	-11.0629
▁definitely	-11.063
▁investidores	-11.0631
▁agent	-11.0632
▁remaining	-11.0634
▁replaced	-11.0638
▁Solar	-11.0638
==	-11.0641
▁facilitar	-11.0641
▁riqueza	-11.0642
▁assinatura	-11.0642
▁conveniente	-11.0642
▁bairro	-11.0643
TR	-11.0645
▁800	-11.0645
▁64	-11.0646
▁shop	-11.0647
▁trees	-11.0648
ä	-11.0653
▁autorização	-11.0657
▁atendimento	-11.0659
▁ausência	-11.0659
▁administrative	-11.066
▁aquecimento	-11.066
▁corporal	-11.0661
▁90%	-11.0661
cimento	-11.0662
▁altas	-11.0662
▁Vida	-11.0664
▁necessita	-11.0664
▁stone	-11.0667
▁casal	-11.067
▁gay	-11.067
▁Studio	-11.0672
Ba	-11.0674
▁Direito	-11.0675
▁proteína	-11.0676
▁vitamin	-11.0676
sha	-11.0676
▁mecanismos	-11.0677
”)	-11.0678
▁Outra	-11.0681
▁2007,	-11.0682
▁zone	-11.0682
▁existente	-11.0683
▁amounts	-11.0683
▁mau	-11.0688
▁Wa	-11.0688
‐	-11.0689
▁introdução	-11.0689
ice	-11.0691
▁inner	-11.0693
▁cur	-11.0694
▁respondeu	-11.0694
▁drivers	-11.0697
zen	-11.0697
▁camp	-11.0704
▁Colombia	-11.0705
▁terror	-11.0708
62	-11.0711
▁cena	-11.0711
▁falha	-11.0712
▁fer	-11.0712
▁Tre	-11.0713
gal	-11.0713
kh	-11.0716
mat	-11.0717
tores	-11.0718
▁Financial	-11.072
▁ótima	-11.072
▁stable	-11.0722
▁diverse	-11.0722
▁Existe	-11.0722
▁starts	-11.0729
▁push	-11.073
▁conceitos	-11.073
om	-11.0732
▁fio	-11.0732
ub	-11.0733
▁47	-11.0734
▁topic	-11.0737
GA	-11.0738
▁preso	-11.074
▁communicate	-11.0742
▁extensive	-11.0745
▁cre	-11.0745
▁contratos	-11.0746
▁destruction	-11.075
▁worst	-11.0751
▁discutir	-11.0751
▁defense	-11.0752
▁49	-11.0755
▁ama	-11.0755
CH	-11.0758
▁conhecimentos	-11.0764
▁positiva	-11.0765
▁equivalent	-11.0765
▁MS	-11.0765
1,	-11.0766
▁acting	-11.0767
▁infraestrutura	-11.0767
▁Muslim	-11.0769
▁Reuters	-11.077
ball	-11.0771
▁Vista	-11.0775
▁killing	-11.0776
▁celebrate	-11.0776
Esta	-11.0777
inter	-11.0777
▁comunicar	-11.0779
▁passada	-11.078
▁séculos	-11.078
▁diagnosis	-11.0781
cher	-11.0782
▁convert	-11.0782
Bo	-11.0783
mbo	-11.0783
▁estabilidade	-11.0784
▁prevenir	-11.0785
bor	-11.0789
cra	-11.0789
▁Hand	-11.0789
▁Nada	-11.079
▁Page	-11.0794
▁sonhos	-11.0794
ye	-11.0795
▁árvore	-11.0799
▁brilhante	-11.0799
▁substances	-11.08
▁prop	-11.0802
cle	-11.0803
▁Win	-11.0806
stone	-11.0806
▁totally	-11.0808
ale	-11.0808
través	-11.0808
82	-11.0811
▁Sweden	-11.0812
▁breast	-11.0812
▁promoting	-11.0812
▁opposition	-11.0812
▁Atlantic	-11.0813
▁Despite	-11.0813
▁judge	-11.0813
mun	-11.0813
▁electricity	-11.0814
200	-11.0814
▁carefully	-11.0818
▁scope	-11.0818
▁criando	-11.082
▁2015.	-11.0822
▁representantes	-11.0825
▁equipes	-11.0826
war	-11.0826
del	-11.0827
▁appeal	-11.0829
ii	-11.083
din	-11.0836
▁illegal	-11.0837
▁fará	-11.0837
▁catch	-11.0838
▁publication	-11.0839
▁zonas	-11.084
▁confirm	-11.0841
▁provider	-11.0842
▁Galaxy	-11.0843
▁Setembro	-11.0843
▁departure	-11.0843
▁experimental	-11.0843
▁visible	-11.0846
▁inspired	-11.0849
▁correr	-11.0849
▁fan	-11.0851
▁regularly	-11.0859
point	-11.086
▁mat	-11.086
Para	-11.086
▁limitado	-11.0861
▁ring	-11.0867
▁mountain	-11.0869
▁naturalmente	-11.0871
▁posts	-11.0872
▁Exército	-11.0874
▁ansiedade	-11.0874
▁divisão	-11.0874
▁haja	-11.0876
play	-11.088
▁Termos	-11.088
▁Action	-11.0881
▁informar	-11.0884
▁Je	-11.0885
▁registo	-11.0887
▁divided	-11.0888
nu	-11.089
▁felizes	-11.0891
▁vossa	-11.0895
▁replace	-11.0897
▁tendências	-11.0897
DC	-11.0903
nor	-11.0905
rn	-11.0905
pul	-11.0907
▁sensitive	-11.091
BA	-11.091
real	-11.0912
▁Tor	-11.0913
▁houses	-11.0915
▁encontrou	-11.0916
▁Ph	-11.0916
▁buying	-11.0919
▁relativo	-11.0925
▁va	-11.0926
▁aparecer	-11.0927
▁alimento	-11.0927
gate	-11.0927
▁Estação	-11.0928
IL	-11.0932
▁discuss	-11.0932
ign	-11.0933
▁depend	-11.0933
▁Evangelho	-11.0936
▁ocasião	-11.0936
▁movements	-11.0936
▁stability	-11.0936
▁Summer	-11.0937
born	-11.0937
▁rapid	-11.0937
▁Irlanda	-11.0938
▁explains	-11.0941
▁40%	-11.0941
▁liberal	-11.0944
right	-11.0945
▁Miss	-11.0948
▁setores	-11.0949
▁pattern	-11.0957
▁Bor	-11.0957
▁obrigado	-11.096
▁Paz	-11.096
▁ativa	-11.0962
▁fronteiras	-11.0967
▁Sydney	-11.0967
▁revelou	-11.0967
▁lançou	-11.0967
▁Secretary	-11.0968
▁Pen	-11.0968
▁©	-11.0969
▁Country	-11.0969
▁democratic	-11.097
▁Pacific	-11.097
▁cumprimento	-11.0971
ST	-11.0973
▁dependendo	-11.0975
▁putting	-11.0978
▁Sign	-11.0978
including	-11.098
▁Stone	-11.0981
▁Pin	-11.0983
▁inteira	-11.0984
▁Milan	-11.0984
▁boat	-11.0985
▁smartphones	-11.0992
▁attitude	-11.0993
▁carrying	-11.0995
▁Modern	-11.0996
▁profit	-11.0998
▁fail	-11.0998
▁andar	-11.0999
▁Beijing	-11.0999
▁Canadian	-11.0999
▁Opções	-11.0999
▁ball	-11.1
▁informed	-11.1
▁jo	-11.1002
▁representam	-11.1003
▁seriam	-11.1006
▁log	-11.1015
▁politics	-11.1016
▁burn	-11.1017
▁Motor	-11.1018
▁involves	-11.1018
▁surprise	-11.1021
▁inimigos	-11.1021
Di	-11.1026
▁collective	-11.1026
▁disorders	-11.1028
▁fossem	-11.1029
▁Vila	-11.1029
▁Gospel	-11.103
ao	-11.103
▁consentimento	-11.103
▁Corporation	-11.103
▁configuração	-11.1031
▁ambas	-11.1031
▁difficulties	-11.1032
▁acessar	-11.1037
nsuring	-11.1038
▁versions	-11.1039
▁considering	-11.1041
▁dão	-11.1046
▁walls	-11.1046
win	-11.1046
Mar	-11.1048
set	-11.105
▁dimension	-11.105
▁financeiras	-11.105
So	-11.1051
▁Bel	-11.1053
▁estranho	-11.1053
▁Sand	-11.1053
▁cheia	-11.1057
▁whereas	-11.1057
ological	-11.106
▁testemunho	-11.1062
▁humidity	-11.1062
▁barco	-11.1062
▁involving	-11.1067
ans	-11.1069
▁shift	-11.1073
nne	-11.1073
They	-11.1073
▁agreements	-11.1074
71	-11.1075
▁fe	-11.1075
ala	-11.1076
▁químicos	-11.1079
▁Tar	-11.108
▁dívida	-11.1085
tão	-11.1087
▁especialista	-11.1089
▁mostly	-11.1089
▁localizada	-11.1089
▁prestar	-11.1092
▁reservations	-11.1093
▁Foreign	-11.1093
▁victory	-11.1093
▁próximas	-11.1095
▁bacteria	-11.1095
▁lifestyle	-11.1096
▁locations	-11.1097
▁beings	-11.1101
▁MB	-11.1102
▁gelo	-11.1103
▁contest	-11.1106
minute	-11.1106
Sa	-11.1108
▁Cho	-11.1109
yo	-11.1111
Our	-11.1112
▁Table	-11.1113
▁tablets	-11.1113
▁viva	-11.1114
▁wave	-11.1116
▁Fox	-11.1116
▁câmera	-11.1117
▁organisations	-11.1118
▁proprietário	-11.1118
▁360	-11.1119
▁interaction	-11.1119
▁Systems	-11.1125
▁industries	-11.1125
▁produtividade	-11.1125
▁85	-11.1126
▁Tower	-11.1127
▁1950	-11.1128
▁temple	-11.1132
▁Arts	-11.1132
▁stick	-11.1133
▁larga	-11.1135
col	-11.1139
oma	-11.1139
▁boys	-11.114
▁seguido	-11.114
matic	-11.1141
500	-11.1142
▁universidade	-11.115
▁adquirir	-11.1151
▁figures	-11.1153
▁expert	-11.1153
bilidade	-11.1153
bio	-11.1155
▁glória	-11.1157
rado	-11.1158
All	-11.1158
▁personalidade	-11.1158
▁Moreover	-11.1158
▁notícia	-11.1158
▁provision	-11.116
▁concentrar	-11.116
▁fi	-11.1161
▁Aires	-11.1163
▁mediante	-11.1165
eis	-11.1166
ndi	-11.1168
▁chamadas	-11.1169
tivas	-11.117
▁plus	-11.1172
Vi	-11.1176
▁britânico	-11.1182
▁regulation	-11.1185
▁sum	-11.1186
km	-11.1187
▁LA	-11.1187
pu	-11.1187
▁straight	-11.1189
▁Posso	-11.119
▁programmes	-11.1192
ata	-11.1193
▁regularmente	-11.1198
▁5:	-11.12
▁EM	-11.12
bat	-11.1205
▁converter	-11.1207
▁Ciências	-11.1208
▁ricos	-11.1211
hy	-11.1212
ila	-11.1213
gel	-11.1213
dora	-11.1214
burg	-11.1215
▁tissue	-11.1215
▁capítulo	-11.1215
▁preparation	-11.1216
ions	-11.1217
▁Fotos	-11.1218
▁Was	-11.122
▁owners	-11.1221
▁contemporary	-11.1221
▁intelectual	-11.1221
▁Conferência	-11.1221
▁concorrência	-11.1221
▁Bueno	-11.1221
nto	-11.1223
▁flat	-11.1223
▁observar	-11.1224
ios	-11.1225
▁actividades	-11.1225
▁estate	-11.1225
▁cruz	-11.1227
▁bag	-11.1228
shi	-11.1229
ámos	-11.123
▁orbit	-11.1235
▁costa	-11.1236
▁livres	-11.1236
water	-11.1236
▁visited	-11.1237
▁Save	-11.1243
▁3-	-11.1246
▁deficiência	-11.1248
▁tro	-11.1249
è	-11.125
ux	-11.1253
▁Clinton	-11.1253
▁Amor	-11.1254
▁approval	-11.1255
▁resist	-11.1255
▁Eastern	-11.1255
▁expectativas	-11.1256
▁conversation	-11.1258
gr	-11.1262
▁updated	-11.1268
▁viajantes	-11.1269
▁Drive	-11.1273
▁Tendo	-11.1273
▁gases	-11.1275
▁encounter	-11.1276
▁muscular	-11.1278
▁mineral	-11.1279
▁Min	-11.128
tico	-11.1281
▁templo	-11.1281
▁deposit	-11.1281
▁soil	-11.1282
▁actividade	-11.1283
▁minister	-11.1283
▁enviado	-11.1285
▁pregnant	-11.1285
▁Exchange	-11.1285
▁toque	-11.1286
ika	-11.1288
ple	-11.1288
▁exposed	-11.1289
▁Fer	-11.1292
CR	-11.1292
lí	-11.1297
▁moon	-11.1298
▁acontecendo	-11.1299
▁Alex	-11.13
▁excesso	-11.1302
▁promotion	-11.1311
▁spoke	-11.1313
ncy	-11.1313
▁segredo	-11.1314
nie	-11.1314
▁agricultura	-11.1314
▁acidente	-11.1314
▁elétrica	-11.1315
▁vantagens	-11.1318
▁transmission	-11.1318
▁competição	-11.1318
▁industriais	-11.1319
▁cuidar	-11.1319
▁opera	-11.132
▁Fundação	-11.132
▁Everything	-11.132
zar	-11.1321
▁Eco	-11.1323
▁von	-11.1325
ea	-11.1328
▁expectations	-11.1328
americano	-11.1328
▁lógica	-11.1329
▁rever	-11.1332
DI	-11.1333
▁Victoria	-11.1336
▁99	-11.1337
▁SC	-11.1339
cker	-11.1339
ual	-11.134
tom	-11.1346
▁requested	-11.1347
▁comentário	-11.1347
▁emocional	-11.1347
▁clínica	-11.1348
hether	-11.135
▁neighborhood	-11.135
▁obligations	-11.135
▁Toronto	-11.135
▁Having	-11.1351
▁accessible	-11.1352
▁Linux	-11.1352
are	-11.1353
mina	-11.1355
▁ego	-11.1356
▁gun	-11.1356
▁reveal	-11.1357
▁(5	-11.1357
▁PR	-11.1358
▁vs	-11.1359
400	-11.1361
▁Tell	-11.1362
▁Arm	-11.1363
63	-11.1363
▁situado	-11.1364
▁Mars	-11.1367
▁Results	-11.1371
▁pagamentos	-11.1374
▁survive	-11.1374
▁experimentar	-11.1377
▁bright	-11.1379
▁fluid	-11.138
▁profundo	-11.138
▁lie	-11.138
▁substância	-11.1381
▁Select	-11.1382
▁unknown	-11.1384
▁meninas	-11.1384
Ma	-11.1384
▁Turismo	-11.1384
▁boost	-11.1384
▁merely	-11.1387
▁Bra	-11.1388
▁Wars	-11.1391
▁standing	-11.1392
▁ouvido	-11.1394
▁cá	-11.1397
▁Santos	-11.1397
▁Net	-11.1402
▁amostras	-11.1403
▁5%	-11.1403
LO	-11.1405
▁Tan	-11.1411
▁broad	-11.1411
ett	-11.1411
▁Fundo	-11.1412
▁exciting	-11.1415
▁surpresa	-11.1415
▁valuable	-11.1415
▁bought	-11.1416
▁houver	-11.1416
▁passeio	-11.1417
bro	-11.1417
dom	-11.1417
rum	-11.1418
▁exclusivamente	-11.1418
▁adding	-11.1419
▁perdeu	-11.142
▁rapidly	-11.1421
dade	-11.1421
ku	-11.1425
▁generated	-11.1426
MC	-11.1427
▁Islam	-11.1428
▁describe	-11.1428
▁Its	-11.1428
pin	-11.1432
▁filter	-11.1433
▁corpos	-11.1434
ery	-11.1435
▁solicitar	-11.1435
gui	-11.1439
ade	-11.1441
▁danger	-11.1442
▁Est	-11.1442
▁moedas	-11.1445
▁representatives	-11.1446
ug	-11.1447
▁português	-11.1448
▁Plaza	-11.1448
▁operational	-11.1449
▁clothing	-11.1453
▁pertence	-11.1454
oni	-11.1458
▁equivalente	-11.1458
▁Village	-11.1461
▁dreams	-11.1461
ks	-11.1464
bed	-11.1464
▁observa	-11.1468
▁Ac	-11.1468
▁Sta	-11.147
MI	-11.1472
ular	-11.1475
▁accurate	-11.1475
eg	-11.1479
▁capabilities	-11.1481
▁desenho	-11.1482
▁pecados	-11.1482
▁gerações	-11.1482
▁department	-11.1482
▁daqui	-11.1484
▁AI	-11.1485
▁surrounding	-11.1485
▁profundamente	-11.1485
▁poli	-11.1485
▁relatively	-11.1486
▁stages	-11.1488
dll	-11.1493
▁successfully	-11.1496
▁competent	-11.1497
▁ministro	-11.1498
cado	-11.15
▁ia	-11.1501
▁Forum	-11.1501
▁ganha	-11.1502
▁flores	-11.1507
avelmente	-11.1508
▁toneladas	-11.151
▁fellow	-11.1514
▁Industry	-11.1514
▁feminino	-11.1514
▁opposite	-11.1514
▁Hotwire	-11.1514
▁francesa	-11.1514
▁divina	-11.1514
▁exemplos	-11.1514
▁explicou	-11.1514
▁composta	-11.1515
▁Temple	-11.1515
▁interpretação	-11.1515
▁overcome	-11.1516
▁circulação	-11.1516
▁conduzir	-11.1517
▁Customer	-11.1517
that	-11.1518
izou	-11.1519
▁desert	-11.1522
iga	-11.1522
93	-11.1526
▁Dead	-11.1528
▁tested	-11.1529
xe	-11.1529
TV	-11.1531
▁enables	-11.1537
▁generate	-11.1539
▁antigas	-11.154
▁friendly	-11.1543
cro	-11.1545
▁watching	-11.1545
ich	-11.1547
▁independência	-11.1547
▁satisfaction	-11.1547
▁Tamanho	-11.1547
▁configurações	-11.1547
▁Coast	-11.1548
nci	-11.1549
▁searches	-11.155
▁Saudi	-11.1552
3,	-11.1552
▁centers	-11.1553
imos	-11.1553
▁Stay	-11.1557
▁edifícios	-11.1557
▁panel	-11.1563
▁Trata	-11.1565
▁component	-11.1565
tim	-11.1569
▁divide	-11.1569
▁sick	-11.1576
▁substituir	-11.1577
▁Dom	-11.1578
▁Ukraine	-11.158
▁italiano	-11.158
▁nisso	-11.1581
▁obrigação	-11.1581
▁formulário	-11.1582
▁duro	-11.1582
▁Final	-11.1582
▁disorder	-11.1582
▁Bridge	-11.1582
▁investors	-11.1583
▁concrete	-11.1584
▁wedding	-11.1586
▁#1	-11.1586
▁Change	-11.1587
ês	-11.159
Membro	-11.1596
▁Direct	-11.16
▁correto	-11.1607
▁yes	-11.1608
▁sujeitos	-11.1611
▁ouvi	-11.1611
▁Ken	-11.1612
▁tocar	-11.1612
rea	-11.1613
▁variáveis	-11.1614
▁Força	-11.1614
▁estacionamento	-11.1614
▁vertical	-11.1615
▁representative	-11.1617
▁directiva	-11.1617
▁Engineering	-11.1617
die	-11.162
▁Sex	-11.1621
air	-11.1626
▁produtores	-11.1627
▁presentation	-11.163
▁quebra	-11.1637
▁naturally	-11.1638
rada	-11.1638
▁Airbnb	-11.1647
▁immune	-11.1647
▁Medicine	-11.1647
▁civis	-11.1647
▁fitness	-11.1649
▁sujeito	-11.165
▁crença	-11.165
81	-11.1651
▁Qui	-11.1655
ró	-11.1656
▁positions	-11.1656
▁Australian	-11.1657
▁arm	-11.1659
▁ondas	-11.1659
▁assess	-11.166
▁attend	-11.1663
yn	-11.1663
eiras	-11.1666
ici	-11.1669
AÇÃO	-11.1671
▁>>	-11.1671
▁ne	-11.1673
tem	-11.1673
uni	-11.1673
▁Simon	-11.1676
▁tornaram	-11.1678
IF	-11.1679
▁flag	-11.168
▁entitled	-11.1681
▁diversity	-11.1681
▁Location	-11.1682
▁choices	-11.1682
▁Priceline	-11.1682
▁Third	-11.1683
▁Remember	-11.1683
▁output	-11.1685
▁Bull	-11.1688
▁Elas	-11.1688
▁Close	-11.1689
▁attract	-11.1689
▁extended	-11.1689
▁aquisição	-11.169
▁1.5	-11.1693
▁Never	-11.1695
rim	-11.1696
▁Photo	-11.17
▁devia	-11.1706
▁moments	-11.1709
▁Fra	-11.1709
▁typical	-11.1712
dica	-11.1714
▁primarily	-11.1714
▁guidelines	-11.1714
▁confiável	-11.1715
▁anxiety	-11.1715
▁percepção	-11.1715
gon	-11.1716
▁acompanhar	-11.1717
▁compete	-11.1717
▁0,	-11.1718
▁branca	-11.1719
▁pura	-11.1719
▁advogado	-11.1719
sky	-11.1721
▁implemented	-11.1727
▁árvores	-11.1729
▁clube	-11.1732
97	-11.1732
▁funding	-11.1732
▁ju	-11.1734
Pa	-11.1734
▁57	-11.1737
▁má	-11.174
ming	-11.1743
▁Somos	-11.1745
}	-11.1748
▁guess	-11.1748
▁Edition	-11.1749
▁Official	-11.1749
▁Available	-11.175
▁Lugares	-11.175
▁judicial	-11.175
▁CIA	-11.1751
▁possibilidades	-11.1751
▁relax	-11.1752
▁stores	-11.1755
▁commonly	-11.1755
vas	-11.1755
▁parent	-11.1757
fra	-11.1759
▁fazemos	-11.1764
▁definido	-11.1767
▁AD	-11.177
▁Tur	-11.1771
▁irmã	-11.1773
wan	-11.1777
▁coast	-11.1778
ations	-11.1779
▁2006,	-11.1779
▁Gre	-11.178
▁Small	-11.1782
▁superiores	-11.1783
▁latter	-11.1783
▁anexo	-11.1784
▁relógio	-11.1788
int	-11.1788
▁streets	-11.1789
tens	-11.1793
▁hiper	-11.1793
▁ingredients	-11.1794
▁suggested	-11.1795
▁provas	-11.1798
▁afetar	-11.1798
▁indo	-11.1798
▁Praia	-11.1799
▁floresta	-11.18
▁BR	-11.1802
▁suit	-11.1802
▁Stop	-11.1803
rus	-11.1804
▁transactions	-11.1804
▁plataformas	-11.1806
PP	-11.1806
▁poucas	-11.1808
▁Primeira	-11.1815
▁alumínio	-11.1816
▁idosos	-11.1816
»,	-11.1816
▁Silver	-11.1818
▁pa	-11.1819
▁Cro	-11.1821
▁seemed	-11.1822
▁símbolo	-11.1822
▁departamento	-11.1822
▁disposto	-11.1823
▁sounds	-11.1823
▁minuto	-11.1823
▁produzido	-11.1823
▁Bol	-11.1825
▁Livro	-11.1826
▁entidades	-11.1826
lly	-11.1828
▁começam	-11.183
UN	-11.1832
▁Han	-11.1832
▁formar	-11.1832
▁Visit	-11.1834
▁brands	-11.1837
itas	-11.1845
▁organizar	-11.1846
▁utilizadas	-11.1847
▁fix	-11.185
▁Santiago	-11.185
▁contínuo	-11.185
▁corrupção	-11.185
▁autocarro	-11.185
▁51	-11.185
▁Secret	-11.185
▁Ly	-11.1851
▁Pay	-11.1851
▁losing	-11.1851
▁stopped	-11.1851
▁5-	-11.1851
▁abrigo	-11.1852
▁god	-11.1856
▁spa	-11.1857
▁líquido	-11.1857
▁vítima	-11.1857
▁determinada	-11.186
▁proof	-11.1861
▁descobriram	-11.1865
▁union	-11.1865
▁letters	-11.1869
▁represented	-11.1869
▁concepts	-11.1871
party	-11.1872
▁strange	-11.1872
▁composition	-11.1873
▁Wood	-11.1875
▁magic	-11.1876
▁capture	-11.1876
nc	-11.1876
▁dealing	-11.1878
▁continuous	-11.188
▁oferecendo	-11.1881
▁Records	-11.1881
▁Miguel	-11.1884
▁Professional	-11.1886
▁diariamente	-11.1886
eza	-11.1887
▁títulos	-11.1888
▁infantil	-11.1888
▁Ah	-11.189
view	-11.1893
▁projetado	-11.1893
▁telling	-11.1894
▁roupa	-11.1895
gua	-11.1895
▁habits	-11.1896
▁passando	-11.19
▁levando	-11.1901
▁destaque	-11.1903
ama	-11.1904
ância	-11.1905
▁conectar	-11.1906
▁composição	-11.1906
íamos	-11.1906
▁facts	-11.1909
▁engage	-11.191
▁dança	-11.1911
▁hearts	-11.1917
▁evidente	-11.1919
▁dimensões	-11.1919
▁chinês	-11.1919
▁console	-11.1919
▁library	-11.1919
▁muçulmanos	-11.1919
▁Liga	-11.192
▁crew	-11.1921
▁reconhece	-11.1922
▁Building	-11.1924
▁Death	-11.1924
hal	-11.1924
▁consist	-11.1926
▁magazine	-11.1927
▁droga	-11.1927
ônico	-11.1928
▁repair	-11.1928
▁relacionada	-11.1929
▁relacionado	-11.1929
▁opinions	-11.193
▁bridge	-11.193
73	-11.1931
▁rental	-11.1932
▁dúvidas	-11.1933
▁iniciativas	-11.1933
▁ri	-11.1934
▁supports	-11.1935
▁Rent	-11.1935
▁sequer	-11.1935
▁movies	-11.1939
ging	-11.1939
▁encontrada	-11.1941
making	-11.1941
▁perfectly	-11.1941
▁notes	-11.1943
▁Mad	-11.1944
sp	-11.1945
▁Mill	-11.1947
IM	-11.1949
▁hidden	-11.1953
▁Taylor	-11.1955
▁Single	-11.1955
▁cutting	-11.1957
▁everyday	-11.1959
▁acquired	-11.1962
▁inimigo	-11.1964
▁2005,	-11.1967
usa	-11.1971
ç	-11.1971
▁receberam	-11.1975
TH	-11.1977
perante	-11.1981
▁platforms	-11.1986
▁initiatives	-11.1987
▁Três	-11.1988
▁Defesa	-11.1988
▁Adobe	-11.1988
▁planejamento	-11.1988
▁identification	-11.1989
▁navegação	-11.1989
▁paixão	-11.1989
▁baseados	-11.199
▁vasta	-11.199
▁Peace	-11.199
▁bigger	-11.199
▁facing	-11.1991
▁falou	-11.1991
ncia	-11.1993
▁refers	-11.2001
▁papa	-11.2005
▁exigir	-11.2005
▁Cape	-11.2006
▁Cam	-11.2006
zu	-11.2009
sim	-11.201
▁imaginar	-11.2013
▁geo	-11.2015
▁placa	-11.2017
▁doctrine	-11.2023
▁temporary	-11.2023
▁absence	-11.2023
▁atualizações	-11.2023
▁inteligentes	-11.2024
▁weekend	-11.2025
▁proportion	-11.2026
▁finish	-11.2027
▁Jones	-11.2028
Um	-11.2029
▁onto	-11.2029
▁@	-11.2032
▁tratado	-11.2033
tech	-11.2033
▁bound	-11.2033
ette	-11.2034
▁doctors	-11.2034
▁patterns	-11.2034
tá	-11.2034
▁histórica	-11.2035
ets	-11.2036
dem	-11.2036
Online	-11.2039
▁AM	-11.204
▁frase	-11.2041
▁desejos	-11.2041
▁Bag	-11.2043
▁Parte	-11.2049
▁quis	-11.205
▁controls	-11.2051
▁mutual	-11.2052
▁caça	-11.2056
▁intra	-11.2056
▁Pop	-11.2056
▁2000,	-11.2056
▁Ucrânia	-11.2057
▁necessariamente	-11.2057
▁Southern	-11.2058
▁Kit	-11.2059
▁healthcare	-11.2059
▁regardless	-11.2059
front	-11.206
uck	-11.2061
▁verify	-11.2061
ás	-11.2062
ati	-11.2062
▁Low	-11.2063
▁Ray	-11.2063
▁root	-11.2065
▁blowing	-11.2067
▁estivesse	-11.2068
▁2.0	-11.2071
▁suffered	-11.2072
tação	-11.2072
▁Plano	-11.2074
itis	-11.2074
▁esquecer	-11.2078
▁guard	-11.2079
▁56	-11.2083
tta	-11.2087
log	-11.2087
▁cristão	-11.2087
▁payments	-11.2088
icamente	-11.2089
▁Buy	-11.209
▁soldiers	-11.2091
▁Abril	-11.2093
▁Mercado	-11.2093
▁Directiva	-11.2093
▁arterial	-11.2093
▁determinados	-11.2094
▁1986	-11.2094
▁Março	-11.2094
▁absolutamente	-11.2094
▁70%	-11.2095
▁stands	-11.2095
bli	-11.2095
▁Faz	-11.2096
▁Pessoas	-11.2097
▁metas	-11.2098
▁vistas	-11.2102
▁Mountain	-11.2104
▁Unit	-11.2105
▁horário	-11.2105
▁(...)	-11.2106
▁san	-11.2106
▁grown	-11.2107
▁corrente	-11.2107
▁concluir	-11.2108
▁socio	-11.2109
life	-11.211
▁empregos	-11.2112
nts	-11.2117
▁neo	-11.2117
▁2016.	-11.212
▁(4)	-11.212
▁180	-11.212
▁programação	-11.2122
600	-11.2127
plica	-11.2128
▁comply	-11.2128
▁ordinary	-11.2128
▁passagens	-11.2128
▁everywhere	-11.2129
▁originais	-11.2129
▁turismo	-11.213
▁prevention	-11.2131
▁BBC	-11.2132
▁nearby	-11.2132
▁ads	-11.2133
▁label	-11.2134
▁finance	-11.2135
▁LG	-11.2135
▁samples	-11.2139
▁comboio	-11.214
▁mechanism	-11.2141
▁weak	-11.2145
▁load	-11.2147
Man	-11.215
nan	-11.2151
▁sets	-11.2152
▁channels	-11.2153
▁(5)	-11.2155
made	-11.2155
▁computers	-11.2156
%)	-11.2156
▁NA	-11.2157
isto	-11.2158
▁Awards	-11.2162
▁Bruxelas	-11.2163
▁audiência	-11.2163
▁behaviour	-11.2163
▁embalagem	-11.2163
ugh	-11.2165
▁ride	-11.2165
ento	-11.2166
▁Vídeo	-11.2167
Jo	-11.2167
▁sopra	-11.2169
▁Options	-11.2171
▁canção	-11.2172
uf	-11.2173
una	-11.2173
▁estabelecido	-11.2177
▁limpa	-11.2177
▁Ciência	-11.2177
▁guest	-11.2177
▁difficulty	-11.218
▁dentes	-11.2182
▁acquire	-11.2189
rro	-11.219
▁absolute	-11.2194
tric	-11.2194
▁Novembro	-11.2198
▁twenty	-11.2198
▁injury	-11.2198
▁entity	-11.2198
▁faço	-11.2198
▁violação	-11.2199
▁Number	-11.22
▁witness	-11.2203
▁originally	-11.2204
▁tensão	-11.2204
▁invited	-11.2204
▁melhora	-11.2206
▁cha	-11.2207
san	-11.2208
▁Gran	-11.2208
▁54	-11.2209
▁Matt	-11.2211
▁supplement	-11.2211
▁dicas	-11.2212
▁landscape	-11.2212
DO	-11.2213
▁peixe	-11.2213
▁Projeto	-11.2213
▁barato	-11.2214
▁Eric	-11.2215
▁Conta	-11.2215
tec	-11.2216
▁limitada	-11.2217
▁east	-11.2219
▁95	-11.2225
▁envio	-11.2226
ibi	-11.2229
▁ato	-11.2229
TC	-11.223
▁careful	-11.2231
▁pin	-11.2231
▁ingredientes	-11.2232
▁smoke	-11.2233
▁acessível	-11.2234
▁native	-11.2234
▁Furthermore	-11.2234
▁draft	-11.2234
▁calorias	-11.2234
▁excited	-11.2234
▁contribuição	-11.2235
▁campus	-11.2236
▁Sala	-11.2242
▁pair	-11.2248
este	-11.2248
▁Camp	-11.2252
gos	-11.2253
▁Sports	-11.2253
▁culturas	-11.2254
▁estágio	-11.2256
▁Doctor	-11.2257
▁estações	-11.2263
▁rely	-11.2264
▁designer	-11.2266
▁nu	-11.2267
▁2017.	-11.2267
▁jurídica	-11.2269
▁bordo	-11.2269
▁inúmeras	-11.2269
▁residence	-11.2269
▁refugiados	-11.227
▁declarações	-11.227
▁corações	-11.2271
▁iOS	-11.2271
▁Uni	-11.2271
▁LCD	-11.2271
nho	-11.2272
▁mover	-11.2274
▁Antonio	-11.2274
American	-11.2279
▁noise	-11.2282
▁frutas	-11.2282
▁raw	-11.2284
▁exclusivo	-11.2285
▁Angola	-11.2286
▁Copa	-11.2287
▁reactions	-11.2287
▁descreve	-11.2289
▁ran	-11.2289
DR	-11.2293
▁adequate	-11.23
▁consistente	-11.23
▁kid	-11.2301
▁info	-11.2302
dura	-11.2302
IR	-11.2303
▁Battle	-11.2305
▁Orlando	-11.2305
link	-11.2305
▁Colômbia	-11.2305
▁Brussels	-11.2306
▁situated	-11.2306
ml	-11.2308
▁producing	-11.2308
▁£	-11.2309
▁registros	-11.231
▁relative	-11.2316
▁sobreviver	-11.2316
▁col	-11.2318
▁lucro	-11.2322
▁fotografia	-11.2323
▁Fast	-11.2323
▁província	-11.2323
▁vá	-11.2324
just	-11.2324
▁orders	-11.2326
tia	-11.2328
▁statistics	-11.2331
▁baixos	-11.2331
▁Non	-11.2333
ude	-11.2335
▁Comments	-11.2336
3)	-11.2337
▁Decision	-11.2341
▁Jordan	-11.2341
▁parágrafo	-11.2341
▁flexible	-11.2341
.[1	-11.2341
▁Código	-11.2342
▁Mestre	-11.2342
▁giant	-11.2343
▁slightly	-11.2343
▁metres	-11.2344
▁stations	-11.2344
▁Cer	-11.2346
leg	-11.2348
▁trends	-11.2349
▁Oscar	-11.235
▁recorde	-11.2351
▁requests	-11.2351
▁Dor	-11.2354
ants	-11.2354
▁emotions	-11.2356
ministro	-11.2358
▁password	-11.2358
uda	-11.2358
▁característica	-11.2358
▁composed	-11.2359
▁caro	-11.2362
▁frame	-11.2364
▁tratamentos	-11.2365
zz	-11.2366
▁seat	-11.2366
▁montanhas	-11.2367
▁Blu	-11.2367
pha	-11.2367
dan	-11.2368
▁afeta	-11.237
▁entregar	-11.2374
▁Mediterranean	-11.2377
▁restrições	-11.2377
▁aplicáveis	-11.2377
▁Devido	-11.2379
lio	-11.2381
▁dê	-11.2382
▁personality	-11.2388
▁deeply	-11.239
▁vemos	-11.2391
▁west	-11.2391
▁revenue	-11.2395
▁division	-11.2395
logia	-11.2398
▁dinâmica	-11.2398
ício	-11.24
▁limpo	-11.2401
▁abroad	-11.2401
▁leg	-11.2402
▁founder	-11.2403
.[	-11.2403
Este	-11.2406
▁Cole	-11.241
▁estarão	-11.2412
▁Alzheimer	-11.2413
▁Sociedade	-11.2413
▁entities	-11.2413
▁Stephen	-11.2413
▁structural	-11.2413
▁destruir	-11.2413
▁registration	-11.2414
▁permissão	-11.2414
▁Relatório	-11.2414
▁calm	-11.2414
▁Step	-11.2415
she	-11.2417
▁abrangente	-11.2419
▁www	-11.2419
▁Rentals	-11.2423
▁liver	-11.2427
ali	-11.2428
▁accident	-11.2428
▁tido	-11.2429
▁poderosa	-11.2432
▁eficazes	-11.2432
▁exigências	-11.2432
▁serving	-11.2433
▁contrary	-11.2434
▁recebido	-11.2434
sustentabilidade	-11.2437
▁audit	-11.2438
zy	-11.2442
▁import	-11.2442
▁ontem	-11.2443
▁sur	-11.2443
rup	-11.2444
▁escreve	-11.2445
▁fees	-11.2445
▁ilegal	-11.2446
▁oeste	-11.2448
▁mostrado	-11.2448
▁Unfortunately	-11.2449
▁merece	-11.2449
▁Alexander	-11.2449
▁2003,	-11.2449
▁preocupações	-11.245
▁NÃO	-11.245
▁minor	-11.2451
ores	-11.2451
▁Andrew	-11.2452
vol	-11.2452
▁bomba	-11.2457
“	-11.2458
▁sole	-11.246
▁considerando	-11.246
▁Say	-11.2461
▁FC	-11.2464
▁secção	-11.2467
▁Suas	-11.2468
fl	-11.2468
▁Mestrado	-11.2469
yan	-11.2469
▁portal	-11.2469
pass	-11.2471
▁investir	-11.2472
▁executivo	-11.2474
▁Num	-11.2478
▁aumentou	-11.248
▁01	-11.2482
▁Bat	-11.2482
▁Zealand	-11.2485
▁execution	-11.2485
▁espacial	-11.2485
▁iluminação	-11.2486
▁Elizabeth	-11.2486
▁Diego	-11.2486
▁transações	-11.2487
▁Snow	-11.2487
▁teus	-11.2487
▁ficaram	-11.2491
▁~	-11.2496
jar	-11.2497
▁license	-11.2498
nar	-11.2498
▁sofrer	-11.2501
-20	-11.2501
▁igrejas	-11.2502
▁Being	-11.2502
▁resource	-11.2508
▁PRO	-11.2509
▁PT	-11.251
you	-11.251
▁consideration	-11.2512
ld	-11.2512
ative	-11.2517
▁ocean	-11.2518
▁tumor	-11.2519
▁Nota	-11.252
▁normally	-11.2521
▁53	-11.2521
▁silêncio	-11.2522
▁luxury	-11.2522
▁Enterprise	-11.2522
mark	-11.2522
▁mon	-11.2522
▁Bas	-11.2523
▁Computer	-11.2523
▁Chief	-11.2524
FA	-11.2524
▁daqueles	-11.2524
rt	-11.2526
▁Front	-11.2526
▁Metro	-11.2527
▁2018.	-11.2528
▁FA	-11.2529
▁ligado	-11.2531
PT	-11.2532
ston	-11.2533
▁presents	-11.2533
ático	-11.2539
▁possess	-11.2544
▁textos	-11.2544
▁informa	-11.2545
▁argument	-11.2545
▁envolver	-11.2547
▁producer	-11.255
▁doente	-11.255
▁edit	-11.255
▁Anna	-11.2551
▁justo	-11.2551
bb	-11.2551
▁Sar	-11.2553
uta	-11.2555
▁juntar	-11.2556
▁Bon	-11.2556
▁trouxe	-11.2557
▁áudio	-11.2558
▁Safety	-11.2559
▁childhood	-11.2559
▁Should	-11.2559
▁Infelizmente	-11.2561
▁Deixe	-11.2561
how	-11.2563
▁airlines	-11.2565
▁listing	-11.2565
kan	-11.2566
▁apareceu	-11.2566
ilha	-11.2567
▁fortemente	-11.2573
▁interact	-11.2574
entes	-11.2575
▁Ste	-11.2576
aco	-11.2578
▁Know	-11.2578
▁certificado	-11.2581
▁episódio	-11.2581
▁retornar	-11.2582
▁Mont	-11.2582
dal	-11.2583
▁potentially	-11.2585
▁lembra	-11.2585
▁abuso	-11.2586
▁infra	-11.2589
fall	-11.2592
▁Province	-11.2595
▁accessories	-11.2595
▁profundidade	-11.2595
▁everybody	-11.2596
eb	-11.2596
▁definitivamente	-11.2597
▁Winter	-11.2598
▁1987	-11.2601
▁CI	-11.2601
▁winning	-11.2603
▁vestido	-11.2603
UL	-11.2607
▁deaths	-11.2607
UE	-11.2607
hor	-11.261
▁graus	-11.2611
¿	-11.2613
posta	-11.2616
▁ameaças	-11.2616
▁costas	-11.2617
▁pilot	-11.2618
▁doors	-11.262
▁stronger	-11.2621
▁química	-11.2623
▁Cre	-11.2626
▁estabelece	-11.2626
ell	-11.2626
lf	-11.2627
▁AS	-11.2629
▁variables	-11.263
▁Câmara	-11.2632
▁matemática	-11.2632
▁iPad	-11.2632
▁potenciais	-11.2633
▁Jacob	-11.2633
▁Família	-11.2633
▁URL	-11.2633
▁injection	-11.2633
▁Marvel	-11.2634
▁Poland	-11.2635
▁legitimate	-11.2635
▁inteiramente	-11.2636
▁secondary	-11.2636
bs	-11.2638
▁Iron	-11.2638
▁entering	-11.2639
▁servidores	-11.2645
hour	-11.2646
▁ambientes	-11.2648
▁começando	-11.2649
▁producers	-11.2649
class	-11.2652
americanos	-11.2654
▁etapa	-11.2657
endo	-11.2657
▁Electric	-11.2657
human	-11.2658
rig	-11.2658
nde	-11.2661
].	-11.2662
▁Palm	-11.2662
PR	-11.2663
▁gerenciar	-11.2664
▁ficará	-11.2666
▁incredible	-11.2669
▁plenty	-11.2669
▁extraordinary	-11.2669
▁sexuais	-11.2669
▁flash	-11.2669
▁caught	-11.267
▁Brian	-11.2671
▁união	-11.2671
▁Satan	-11.2672
▁Finalmente	-11.2672
▁elite	-11.2673
▁Cultural	-11.2673
▁farm	-11.2673
▁universidades	-11.2677
▁Following	-11.2677
put	-11.2678
▁Tens	-11.268
▁2012.	-11.2681
▁rose	-11.2682
▁beneficiar	-11.2684
nge	-11.2684
▁claimed	-11.2689
law	-11.2692
▁Sound	-11.2694
▁enterprise	-11.2694
▁russo	-11.2694
▁posterior	-11.2696
▁listening	-11.2698
-12	-11.2698
▁exclusiva	-11.2703
▁plena	-11.2704
▁earn	-11.2704
▁submit	-11.2705
▁Assembly	-11.2706
▁Comitê	-11.2706
▁ministério	-11.2706
▁jeito	-11.2707
▁Ordem	-11.2707
▁→	-11.2707
▁Dragon	-11.2708
▁colaboradores	-11.2708
▁habit	-11.2711
▁(6	-11.2715
▁protest	-11.2715
ire	-11.2717
sia	-11.2719
▁Angel	-11.2723
▁bra	-11.2725
▁proteínas	-11.2726
▁elevados	-11.2727
▁capa	-11.2728
▁establishing	-11.273
▁Shop	-11.2731
▁respeita	-11.2732
▁proposals	-11.2732
mails	-11.2733
Á	-11.2734
cen	-11.2734
How	-11.2735
▁sentence	-11.2737
▁Carta	-11.2741
94	-11.2742
▁Companhia	-11.2744
▁Privacidade	-11.2744
▁imediato	-11.2744
▁reputation	-11.2744
▁mystery	-11.2744
▁populações	-11.2744
PI	-11.2745
▁theoretical	-11.2745
▁Welcome	-11.2745
▁actor	-11.2745
▁herself	-11.2745
cut	-11.2746
▁Consider	-11.2747
▁respectively	-11.2749
▁saiu	-11.2749
▁eleição	-11.275
▁confiar	-11.2751
dar	-11.2754
▁deixando	-11.2755
▁Ch	-11.2755
▁tourist	-11.2756
▁etapas	-11.2757
▁holds	-11.2758
iti	-11.2759
▁Syrian	-11.2764
▁Korean	-11.2765
▁mistake	-11.2766
▁Five	-11.2775
▁Estás	-11.2776
▁faithful	-11.2776
▁sementes	-11.2777
pec	-11.2777
▁Netflix	-11.2781
▁necessarily	-11.2781
▁implementar	-11.2782
▁pegar	-11.2782
has	-11.2782
▁snow	-11.2782
▁permitido	-11.2784
▁fornecem	-11.2785
▁storm	-11.2786
▁interação	-11.2788
▁reasonable	-11.2788
pra	-11.2789
▁extend	-11.2789
▁operators	-11.2789
▁bactérias	-11.2789
▁discussed	-11.2793
mais	-11.2795
▁convenient	-11.2796
▁Ilha	-11.2799
ição	-11.2799
▁Xi	-11.2803
▁pasta	-11.2803
▁fa	-11.2804
▁lots	-11.2807
ser	-11.2807
▁victim	-11.2809
▁reconhecido	-11.2809
ET	-11.2809
stitu	-11.281
▁1988	-11.281
ética	-11.281
▁churches	-11.2811
▁independentes	-11.2811
▁perdido	-11.2811
▁!	-11.2813
▁estável	-11.2814
▁creates	-11.2818
▁Frankfurt	-11.2819
▁Suécia	-11.2819
▁applies	-11.2819
▁Manchester	-11.2819
ox	-11.2821
▁Has	-11.2821
▁Christianity	-11.2825
▁venture	-11.2825
▁cu	-11.2825
ect	-11.2825
▁Lou	-11.2825
▁leitores	-11.2827
ía	-11.2827
▁engaged	-11.2829
▁caminhos	-11.283
▁parâmetros	-11.2834
▁alemã	-11.2836
▁seriously	-11.2836
▁reaching	-11.2837
incluindo	-11.2838
▁acções	-11.2841
‘	-11.2841
uca	-11.2843
▁Based	-11.2845
▁Lua	-11.2845
▁Give	-11.2845
▁biblioteca	-11.2847
▁imposto	-11.2849
▁Sport	-11.285
▁routine	-11.2851
▁officer	-11.2851
▁saving	-11.2852
▁feels	-11.2853
gé	-11.2854
▁períodos	-11.2855
rich	-11.2856
▁propaganda	-11.2856
▁Cambridge	-11.2857
▁Gaza	-11.2857
▁classified	-11.2858
▁Madeira	-11.2858
▁Would	-11.2858
▁conter	-11.2859
▁competências	-11.2859
▁Care	-11.2861
▁1989	-11.2864
cc	-11.2865
▁diga	-11.2866
▁residents	-11.2871
lina	-11.2874
▁alternativas	-11.2874
gio	-11.2879
ril	-11.288
tada	-11.2882
▁Think	-11.2884
▁referido	-11.2887
▁intense	-11.2889
FI	-11.289
ora	-11.289
state	-11.2893
▁Orbitz	-11.2894
▁universities	-11.2894
▁remoção	-11.2894
▁troops	-11.2894
▁gravidade	-11.2894
▁Bell	-11.2895
▁dinner	-11.2895
ística	-11.2895
▁tough	-11.2895
▁biological	-11.2895
▁milhas	-11.2896
▁Body	-11.2897
▁músculos	-11.2897
▁fur	-11.2899
▁souls	-11.2899
▁ultimately	-11.2899
74	-11.2903
▁raros	-11.2903
▁degrees	-11.2905
tte	-11.2907
▁museu	-11.2911
ious	-11.2911
▁connections	-11.2911
▁Images	-11.2912
style	-11.2912
▁instalado	-11.2912
▁Ash	-11.2913
nel	-11.2916
▁senhora	-11.2918
▁Grã	-11.2919
ians	-11.2921
▁writer	-11.2921
py	-11.2924
▁cópia	-11.2924
▁órgão	-11.2925
▁idioma	-11.2926
▁trained	-11.2927
▁prioridade	-11.2927
▁examine	-11.2927
▁interessado	-11.2928
▁descrito	-11.293
▁clicking	-11.2932
rate	-11.2932
▁Harvard	-11.2932
▁entendimento	-11.2933
▁teeth	-11.2934
▁Annex	-11.2936
▁tons	-11.2937
▁western	-11.2938
▁aulas	-11.294
VE	-11.2947
nta	-11.2949
▁recomenda	-11.2953
▁levam	-11.2956
▁maintained	-11.296
▁seco	-11.2962
▁chapter	-11.2963
▁crítico	-11.2963
▁Due	-11.2964
mmer	-11.2966
▁trauma	-11.2969
▁ritual	-11.2971
▁permitiu	-11.2971
▁ongoing	-11.2971
▁Escolha	-11.2972
▁Value	-11.2972
▁Energia	-11.2973
▁appointed	-11.2974
▁disciples	-11.2974
▁dano	-11.2974
cial	-11.2974
gens	-11.2975
▁ranking	-11.2977
▁Baixar	-11.2978
▁turns	-11.2978
▁healing	-11.2979
▁GPS	-11.2979
▁sending	-11.298
▁terras	-11.2981
▁apresentados	-11.2983
▁roll	-11.2984
▁onda	-11.2992
▁obtidos	-11.2993
Ho	-11.2997
▁cobre	-11.2997
▁FOR	-11.2998
▁comparar	-11.2999
▁drinking	-11.2999
▁Nome	-11.3002
▁z	-11.3006
▁RS	-11.3007
▁enemies	-11.3009
▁possibilities	-11.3009
▁Lodge	-11.3009
▁cartões	-11.301
▁estreita	-11.301
▁belong	-11.301
▁Castle	-11.3011
-7	-11.3012
▁transportation	-11.3013
▁effectiveness	-11.3013
▁proven	-11.3013
▁mountains	-11.3014
cionais	-11.3015
cam	-11.3015
▁descrever	-11.3017
▁Espera	-11.302
▁finalidade	-11.302
su	-11.3021
dd	-11.3022
▁66	-11.3025
quality	-11.3026
▁fique	-11.3027
▁Pri	-11.3029
800	-11.3029
▁investigar	-11.3031
uch	-11.3031
▁lift	-11.3031
▁Testament	-11.3032
▁Nenhum	-11.3033
▁digo	-11.3034
Estamos	-11.3034
▁ocidental	-11.3041
▁promessa	-11.3041
▁básico	-11.3042
▁consequência	-11.3042
▁estudante	-11.3042
▁elections	-11.3042
▁Guest	-11.3042
▁bill	-11.3042
▁motores	-11.3043
ese	-11.3044
▁spaces	-11.3044
▁Band	-11.3047
▁vulnerable	-11.3047
▁oxygen	-11.3047
▁flexibilidade	-11.3047
▁achar	-11.3048
▁Singapore	-11.3048
▁introduction	-11.3048
▁Study	-11.3048
▁porto	-11.305
▁abre	-11.305
▁expressa	-11.3053
▁SD	-11.3055
▁testar	-11.3056
▁moderate	-11.3056
▁modernos	-11.3057
▁Class	-11.3057
▁teor	-11.306
▁sins	-11.306
▁preparado	-11.3062
lus	-11.3063
▁brief	-11.3067
igo	-11.3067
▁ends	-11.3068
▁BA	-11.3069
▁2013.	-11.3069
▁retain	-11.3069
▁Gas	-11.3072
▁strongly	-11.3076
▁aventura	-11.3081
▁famosa	-11.3081
▁homes	-11.3081
▁usual	-11.3082
▁intention	-11.3083
▁Want	-11.3083
▁revelar	-11.3084
▁icon	-11.3085
▁hire	-11.3085
▁masculino	-11.3086
▁reputação	-11.3086
▁WordPress	-11.3086
▁contêm	-11.3086
▁northern	-11.3086
▁hide	-11.3086
▁chamou	-11.3087
▁FBI	-11.3088
▁determinação	-11.3088
▁automatic	-11.3088
▁differ	-11.3088
lle	-11.309
▁distributed	-11.309
▁2014.	-11.309
▁drawn	-11.3093
▁greatly	-11.3096
▁2004,	-11.3098
Po	-11.31
▁tendem	-11.3103
▁lança	-11.3104
cost	-11.3105
▁topics	-11.3107
▁taxes	-11.3109
▁parecia	-11.311
▁disto	-11.311
▁adventure	-11.312
stro	-11.3121
▁Produto	-11.3121
▁diário	-11.3123
▁Administration	-11.3125
▁esqueça	-11.3125
▁sobrevivência	-11.3125
▁Shanghai	-11.3125
▁horror	-11.3125
▁certificação	-11.3125
▁Championship	-11.3125
▁↑	-11.3125
▁finais	-11.3127
▁observação	-11.3127
▁Contra	-11.3128
▁Fair	-11.3129
▁macro	-11.3129
▁chose	-11.3129
/4	-11.3129
▁fundada	-11.3131
▁threats	-11.3131
▁58	-11.3132
▁Ocidental	-11.3133
▁whenever	-11.3134
▁Cerca	-11.3134
ult	-11.3134
▁evaluated	-11.3136
▁Rede	-11.3138
eto	-11.3144
mato	-11.3144
▁charged	-11.3146
▁mechanisms	-11.3149
▁bro	-11.315
▁folhas	-11.315
Go	-11.315
▁críticas	-11.3151
▁metro	-11.3155
cil	-11.3157
ties	-11.3158
▁acquisition	-11.3164
▁automática	-11.3164
▁genuine	-11.3164
▁Taiwan	-11.3164
▁previsão	-11.3164
▁sai	-11.3165
ativo	-11.3167
▁clothes	-11.3167
▁1.3	-11.317
▁examples	-11.3171
▁Try	-11.3171
▁acordos	-11.3172
▁98	-11.3174
ua	-11.3175
▁4:	-11.3176
▁offices	-11.3182
▁barra	-11.3183
▁proporcionar	-11.3187
▁Nick	-11.3189
▁schedule	-11.319
▁determinadas	-11.3196
▁Fan	-11.3199
▁básica	-11.32
▁bebida	-11.32
▁apropriado	-11.32
▁daquele	-11.32
▁construída	-11.32
▁Revolution	-11.3202
▁Tokyo	-11.3203
▁vejo	-11.3203
▁bonito	-11.3203
:1	-11.3203
▁triste	-11.3204
▁aparentemente	-11.3204
▁exportação	-11.3204
▁outdoor	-11.3205
▁coragem	-11.3205
▁beliefs	-11.3209
▁vinte	-11.321
kov	-11.3211
▁demonstrated	-11.3212
▁RO	-11.3212
▁discovery	-11.3213
▁basta	-11.3222
oid	-11.3222
▁Quinta	-11.3223
▁exercer	-11.3224
▁25%	-11.3226
rico	-11.3227
▁parameters	-11.3229
▁completar	-11.3231
▁relevante	-11.3232
▁reforçar	-11.3233
non	-11.3233
▁Ven	-11.3233
▁Rob	-11.3235
ick	-11.3236
▁functional	-11.3237
▁capacidades	-11.3239
▁hábitos	-11.3239
CP	-11.3241
▁Entertainment	-11.3242
▁inoxidável	-11.3242
▁survival	-11.3242
▁bola	-11.3242
▁certification	-11.3242
▁densidade	-11.3242
▁naquela	-11.3242
▁acompanhamento	-11.3242
-9	-11.3243
▁atua	-11.3245
▁ensaios	-11.3246
▁mechanical	-11.3247
▁renal	-11.3248
▁Story	-11.3251
▁covers	-11.3252
▁Mrs	-11.3262
▁Self	-11.3266
▁peaceful	-11.3273
▁perde	-11.3273
▁negotiations	-11.3278
▁organize	-11.328
▁bela	-11.328
▁cerveja	-11.3281
▁continuou	-11.3281
▁ruim	-11.3282
▁receitas	-11.3283
▁compatível	-11.3283
▁ga	-11.3284
▁visível	-11.3284
▁fechar	-11.3285
▁tomou	-11.3285
▁informou	-11.3286
▁updates	-11.3286
▁disciplina	-11.3286
▁deserve	-11.3288
▁GE	-11.3288
▁custa	-11.3289
▁inspiration	-11.329
▁defeat	-11.3294
▁Tony	-11.3297
▁levantar	-11.3298
▁paga	-11.3301
▁gained	-11.3304
▁API	-11.3305
▁dispõe	-11.3306
▁Venda	-11.3306
▁bat	-11.3307
▁Im	-11.331
▁fishing	-11.3313
▁climáticas	-11.3316
▁compostos	-11.3317
▁admit	-11.3318
▁ocorrem	-11.3319
▁obligation	-11.3321
▁núcleo	-11.3321
▁tropical	-11.3321
Bretanha	-11.3321
▁Constituição	-11.3321
▁Creator	-11.3321
▁premium	-11.3321
▁LORD	-11.3321
tti	-11.3321
▁divertido	-11.3322
▁regulatory	-11.3322
▁Mission	-11.3322
▁aceitação	-11.3324
▁attractions	-11.3324
▁tips	-11.3325
▁addressed	-11.3325
▁Down	-11.3326
ef	-11.3327
▁60%	-11.3328
▁disc	-11.333
▁menina	-11.333
-18	-11.3331
▁Sant	-11.3332
▁processed	-11.3334
▁relativos	-11.3335
▁Hay	-11.3336
▁contou	-11.3339
▁sides	-11.3345
▁Modelo	-11.3346
▁acontecimentos	-11.3347
▁Williams	-11.3347
▁recomendado	-11.3349
▁surge	-11.3349
▁decline	-11.3352
tle	-11.3353
▁Ram	-11.336
being	-11.336
▁Fevereiro	-11.336
▁ajudou	-11.336
▁lunch	-11.3361
▁Dutch	-11.3361
▁entertainment	-11.3361
▁Overview	-11.3361
▁brasileira	-11.3361
▁tabela	-11.3361
▁refeição	-11.3361
▁priest	-11.3361
▁proporção	-11.3361
▁vessels	-11.3363
▁Located	-11.3363
▁delay	-11.3368
▁theme	-11.3369
▁productive	-11.337
▁mercadorias	-11.3371
nca	-11.3372
▁componente	-11.3374
▁PM	-11.3374
▁Put	-11.3375
▁Nobel	-11.3376
▁rica	-11.3377
bul	-11.3379
▁abandon	-11.338
aka	-11.3381
▁Blog	-11.3383
▁objectivos	-11.3384
▁unity	-11.3385
cing	-11.3387
▁Resultados	-11.3387
str	-11.3388
▁commit	-11.3388
▁insights	-11.339
▁condicionado	-11.3395
-8	-11.3397
▁ye	-11.3398
▁OR	-11.3398
▁pump	-11.34
▁trimestre	-11.34
▁nuvens	-11.3401
▁managers	-11.3401
▁comissão	-11.3401
▁separação	-11.3401
▁Edward	-11.3401
▁newspaper	-11.3402
▁cheapest	-11.3402
▁pintura	-11.3402
▁medição	-11.3407
▁piloto	-11.3407
▁plays	-11.341
fil	-11.341
▁Hor	-11.3415
▁poly	-11.3415
▁Sur	-11.3423
americana	-11.3424
▁surf	-11.3424
▁Mai	-11.3424
▁reporting	-11.3425
▁avançar	-11.3425
▁internos	-11.3426
▁artes	-11.3429
▁Dark	-11.3429
Pe	-11.3429
▁crowd	-11.343
CS	-11.343
▁dirigir	-11.3432
▁visiting	-11.3437
▁Diretor	-11.3437
▁Region	-11.3437
mel	-11.3438
▁Asian	-11.3439
▁2011.	-11.344
▁cerebral	-11.344
▁conduta	-11.344
Uma	-11.344
▁BMW	-11.3441
▁conservação	-11.3441
▁Oriental	-11.3442
▁respective	-11.3442
▁económico	-11.3442
▁Ajuda	-11.3442
▁eletrônico	-11.3443
▁retirar	-11.3444
▁básicos	-11.3446
▁aula	-11.3446
▁Países	-11.3446
▁nela	-11.3447
▁museum	-11.3458
▁conhecidas	-11.3462
▁atualizar	-11.3462
▁entende	-11.3463
top	-11.3464
▁emerging	-11.3467
▁electrical	-11.3469
▁armed	-11.3469
▁lados	-11.3469
▁Need	-11.347
▁pão	-11.3472
▁Les	-11.3473
▁2002,	-11.3474
▁Austria	-11.3474
TI	-11.3476
▁sir	-11.3476
ssa	-11.3477
▁imagina	-11.3477
▁Chat	-11.348
▁Affairs	-11.348
▁amizade	-11.348
▁entretenimento	-11.348
▁mobility	-11.3481
▁possivelmente	-11.3481
▁adesão	-11.3481
▁Field	-11.3481
▁Future	-11.3481
(1)	-11.3482
▁paisagem	-11.3482
▁civilization	-11.3483
▁previsto	-11.3483
▁tourism	-11.3484
og	-11.3485
▁sentem	-11.3488
▁Carl	-11.3491
▁guaranteed	-11.3498
▁leitor	-11.3498
BR	-11.3498
▁younger	-11.3498
▁mostraram	-11.3504
▁periods	-11.3505
▁Vatican	-11.3506
▁6.	-11.3509
▁damaged	-11.3509
▁Ye	-11.3515
▁59	-11.3518
▁estatísticas	-11.3519
izadas	-11.352
▁Alliance	-11.3521
▁intensidade	-11.3521
▁dezenas	-11.3521
▁telephone	-11.3521
▁productivity	-11.3522
▁Belgium	-11.3522
▁gratuitamente	-11.3523
▁causada	-11.3523
▁violent	-11.3524
▁meal	-11.3524
▁Programme	-11.3526
▁Used	-11.3527
▁specialized	-11.3527
▁helpful	-11.3528
▁faria	-11.3528
▁grand	-11.3532
▁esperando	-11.3535
En	-11.3536
▁provar	-11.3539
▁recon	-11.354
scale	-11.3541
▁readers	-11.3541
▁queima	-11.3542
▁accompanied	-11.3542
world	-11.3542
site	-11.3543
New	-11.3544
▁desired	-11.3544
▁Islands	-11.3545
rid	-11.3546
▁conversar	-11.3555
▁conseguem	-11.3555
▁AL	-11.3558
▁pede	-11.3558
▁Suppliers	-11.3558
▁Ap	-11.356
▁Endereço	-11.3561
▁Experience	-11.3561
▁fantastic	-11.3561
▁manuais	-11.3561
▁psychological	-11.3561
▁desktop	-11.3561
▁sustainability	-11.3561
▁aliança	-11.3561
▁wake	-11.3562
▁Imagens	-11.3562
▁ligar	-11.3562
▁nomeado	-11.3563
▁regionais	-11.3565
pers	-11.3565
▁Ref	-11.3566
▁Golf	-11.3566
▁aged	-11.3566
▁similares	-11.3568
▁outcome	-11.3569
▁contendo	-11.3571
▁Pol	-11.3571
sel	-11.3575
▁braços	-11.3578
▁aves	-11.3582
▁Player	-11.3584
▁contracts	-11.3588
▁realized	-11.3588
▁Desta	-11.3588
▁MI	-11.3588
▁(0	-11.3596
▁Hat	-11.3597
▁arrive	-11.3598
▁Core	-11.3598
▁bu	-11.3601
té	-11.3602
▁Prêmio	-11.3602
▁agriculture	-11.3602
▁fiéis	-11.3602
▁duties	-11.3602
▁mobilidade	-11.3602
ônica	-11.3602
▁adoption	-11.3603
▁vacina	-11.3605
▁generations	-11.3606
▁Nothing	-11.3606
▁desenvolveu	-11.3607
pensa	-11.361
▁switch	-11.3612
▁Pass	-11.3612
▁aumentando	-11.3612
BS	-11.3614
▁lua	-11.3614
▁rep	-11.3614
dent	-11.3616
▁Commissioner	-11.3621
anti	-11.3623
Ó	-11.3624
▁Account	-11.3629
▁demonstrar	-11.3636
▁mama	-11.3636
▁cleaning	-11.3636
prim	-11.3637
▁manifest	-11.3639
▁incident	-11.3639
stein	-11.364
One	-11.3641
▁packaging	-11.3643
▁Channel	-11.3643
▁reconhecida	-11.3643
▁grew	-11.3643
▁respectivamente	-11.3644
▁designers	-11.3644
tados	-11.3644
▁fabric	-11.3645
▁Tourism	-11.3645
av	-11.3647
eth	-11.3647
▁chair	-11.3649
▁fenômeno	-11.3649
▁strike	-11.3649
▁Hol	-11.3649
row	-11.3649
▁permission	-11.365
imento	-11.365
▁servers	-11.3651
▁Child	-11.3652
▁indicates	-11.3654
Te	-11.3657
▁factory	-11.3658
▁BE	-11.3662
▁recording	-11.3663
▁flying	-11.3667
▁parking	-11.3668
▁restrictions	-11.3668
cept	-11.3671
▁Sale	-11.3675
▁envia	-11.3676
▁Diz	-11.3678
▁crenças	-11.368
▁Ask	-11.3681
▁dew	-11.3684
▁Nintendo	-11.3684
▁magnitude	-11.3684
▁Technical	-11.3684
▁ill	-11.3684
▁Área	-11.3684
▁burden	-11.3684
▁Branca	-11.3684
▁gravação	-11.3684
▁Daily	-11.3686
▁fares	-11.3688
▁2010.	-11.3688
▁travelers	-11.369
▁SEO	-11.369
▁clássico	-11.3691
▁esporte	-11.3691
▁Cookies	-11.3699
▁suporta	-11.37
▁grade	-11.3707
▁pack	-11.3708
▁EX	-11.3708
▁Farm	-11.3709
▁Springs	-11.371
cie	-11.3711
mate	-11.3714
▁ordered	-11.3717
▁obvious	-11.3719
▁portion	-11.372
▁investments	-11.3721
▁statements	-11.3722
▁performing	-11.3723
▁distinct	-11.3723
▁bread	-11.3724
▁Moisés	-11.3725
▁choosing	-11.3725
▁primária	-11.3725
▁duplo	-11.3725
▁treino	-11.3725
▁aprendizado	-11.3725
▁rising	-11.3725
▁monitoramento	-11.3726
▁examination	-11.3727
UT	-11.3727
▁básicas	-11.3727
▁Agoda	-11.3729
▁retirada	-11.3732
▁anymore	-11.3733
▁velha	-11.3733
▁Language	-11.3734
▁pensando	-11.3734
▁fibra	-11.3736
lam	-11.3739
▁eterna	-11.3739
▁colour	-11.374
duc	-11.3741
▁Sciences	-11.3741
▁AT	-11.3742
▁camada	-11.3744
icos	-11.3745
▁farmers	-11.3745
▁usá	-11.3746
▁peixes	-11.3749
▁regards	-11.3749
und	-11.3749
▁exigem	-11.375
▁SO	-11.375
▁análises	-11.3752
FR	-11.3754
▁volumes	-11.3754
és	-11.3756
Ca	-11.3758
from	-11.3759
▁fornecidos	-11.3759
▁muscles	-11.3759
▁92	-11.3761
▁inicia	-11.3762
▁passing	-11.3764
▁descoberto	-11.3766
▁heritage	-11.3766
▁metodologia	-11.3766
▁golpe	-11.3767
▁1979	-11.3767
SD	-11.3768
▁darkness	-11.3768
▁colonial	-11.377
▁confident	-11.377
▁Ring	-11.377
▁Baby	-11.377
▁Everyone	-11.3771
▁posse	-11.3772
▁largely	-11.3773
▁province	-11.3775
▁representação	-11.3775
flu	-11.3776
▁fatos	-11.3777
ili	-11.3777
▁físicos	-11.3778
lá	-11.3778
▁initially	-11.3778
▁cultures	-11.378
▁promised	-11.3781
▁Six	-11.3782
▁charges	-11.3782
▁talks	-11.3783
▁deserto	-11.3785
elle	-11.3785
▁layer	-11.3787
band	-11.3787
▁fleet	-11.3788
▁mere	-11.3788
▁mining	-11.3791
NI	-11.3793
meter	-11.3797
▁acknowledge	-11.3799
▁alien	-11.3801
▁organismos	-11.3801
▁Rosa	-11.3805
▁rec	-11.3806
▁Hard	-11.3806
▁Caribbean	-11.3808
▁[+]	-11.3808
▁calendar	-11.3808
▁elderly	-11.3808
▁Jetcost	-11.3808
▁essência	-11.3808
▁empty	-11.3808
▁globe	-11.3808
▁conseguinte	-11.3808
▁possamos	-11.3809
▁rotina	-11.3809
▁1984	-11.3809
▁smoking	-11.381
▁Prize	-11.381
▁cresceu	-11.3812
▁verificação	-11.3813
▁attached	-11.3813
▁login	-11.3813
imo	-11.3815
▁segment	-11.3816
▁tantas	-11.3817
▁medication	-11.3818
▁pouca	-11.3818
▁impressionante	-11.3818
▁negro	-11.3818
▁Empresa	-11.3819
▁IBM	-11.3821
▁tente	-11.3821
▁awarded	-11.3822
▁altar	-11.3822
▁busy	-11.3823
▁rid	-11.3827
▁brutal	-11.3828
BE	-11.3829
▁relacionamentos	-11.3834
▁Talk	-11.3835
ography	-11.3836
▁prime	-11.3837
uge	-11.3838
▁consumir	-11.3842
▁bond	-11.3845
▁ultimate	-11.3845
▁recusa	-11.3846
▁chi	-11.3847
▁Administração	-11.3849
▁ministry	-11.3849
▁portfolio	-11.3849
▁default	-11.3849
▁concepção	-11.385
▁palco	-11.3851
ily	-11.3854
▁ética	-11.3858
▁Question	-11.3861
▁incluído	-11.3861
▁Torre	-11.3862
▁honest	-11.3863
▁errors	-11.3864
pes	-11.3866
▁vizinhos	-11.3868
level	-11.3868
▁Paper	-11.3869
▁Vin	-11.3869
▁futuros	-11.387
ÇÃO	-11.387
dido	-11.387
▁jornalistas	-11.3871
hl	-11.3871
฀	-11.3872
tig	-11.3874
ben	-11.3876
▁targets	-11.3878
▁institutional	-11.3878
▁posted	-11.3879
▁Wait	-11.3881
▁reject	-11.3883
▁drops	-11.3884
▁illness	-11.3885
▁Boy	-11.3889
▁Ofertas	-11.389
▁continuing	-11.3891
▁demasiado	-11.3891
▁maravilhoso	-11.3891
▁Agosto	-11.3891
▁UEFA	-11.3892
▁divulgação	-11.3892
▁ordens	-11.3893
▁expandir	-11.3894
cção	-11.3894
▁remind	-11.3899
▁corresponding	-11.3899
pot	-11.3899
▁comunitário	-11.3903
▁montanha	-11.3903
▁analyzed	-11.3906
▁personally	-11.3907
▁Zo	-11.3907
▁Toda	-11.3909
test	-11.3912
run	-11.3912
▁Corte	-11.3913
▁mostrando	-11.3913
▁convidados	-11.3914
Í	-11.3914
▁melhorias	-11.3915
▁bike	-11.3916
cast	-11.3917
nça	-11.3919
▁escolhas	-11.3923
▁tecidos	-11.3926
▁desenvolvidos	-11.3927
▁ensina	-11.3928
▁cartas	-11.3928
▁encontradas	-11.3929
▁Av	-11.393
▁constituem	-11.3933
▁misericórdia	-11.3933
▁energética	-11.3933
▁Império	-11.3933
▁Northern	-11.3934
▁vapor	-11.3934
place	-11.3935
▁Ultra	-11.3935
▁Choose	-11.3937
▁qualified	-11.3939
▁Song	-11.394
▁input	-11.3941
nate	-11.3941
!!	-11.3942
▁exception	-11.3943
cula	-11.3943
▁dedicada	-11.3944
▁Training	-11.3945
▁científico	-11.3947
▁alcançado	-11.3949
ui	-11.3951
▁ease	-11.3952
▁exceed	-11.3952
▁continente	-11.3954
late	-11.3955
▁ocorrência	-11.3957
▁estabelecidos	-11.3959
Que	-11.3959
▁Arabia	-11.396
▁fraud	-11.3961
▁apresentada	-11.3961
▁objecto	-11.3962
NE	-11.3962
cta	-11.3964
AF	-11.3964
1.	-11.3967
▁Luis	-11.3969
▁smooth	-11.397
▁humanas	-11.397
▁routes	-11.397
▁eliminate	-11.3971
▁apelo	-11.3972
▁lock	-11.3973
▁infecções	-11.3975
▁inhabitants	-11.3975
▁escuro	-11.3975
▁Double	-11.3975
▁Indeed	-11.3976
▁atrações	-11.3976
▁maintaining	-11.3976
▁contudo	-11.3976
▁wireless	-11.3976
▁corruption	-11.3976
▁radiação	-11.3976
▁votação	-11.3976
▁1981	-11.3977
cido	-11.3977
ór	-11.3977
▁covering	-11.3977
▁distrito	-11.3977
▁1968	-11.3978
▁vencer	-11.3979
▁sacred	-11.3979
▁Lyon	-11.3979
LS	-11.398
▁Silva	-11.3981
ule	-11.3982
▁asset	-11.3983
▁Week	-11.3984
▁corrigir	-11.3986
▁perception	-11.399
▁Palestinian	-11.399
▁satellite	-11.399
▁conselhos	-11.3991
▁¿	-11.3997
▁fotografias	-11.3998
▁colocado	-11.4002
▁Marx	-11.4002
▁passam	-11.4002
▁Cost	-11.4003
ash	-11.4004
▁appreciate	-11.4011
▁Den	-11.4011
▁paying	-11.4011
bot	-11.4013
dro	-11.4014
▁partículas	-11.4014
Ne	-11.4018
▁breeze	-11.4018
▁religiões	-11.4018
▁afternoon	-11.4018
▁representar	-11.4018
▁Universo	-11.4018
▁tropas	-11.4018
▁prevê	-11.4018
▁futuras	-11.4018
▁runs	-11.4019
▁cuidadosamente	-11.4019
▁senti	-11.4019
▁advantages	-11.402
▁Season	-11.4021
▁Glass	-11.4021
fal	-11.4024
▁descobertas	-11.4027
Ra	-11.4027
▁elected	-11.4031
▁conventional	-11.4031
▁mixed	-11.4032
▁employee	-11.4032
▁transaction	-11.4033
▁fee	-11.4033
▁Preço	-11.4033
fica	-11.4036
▁CP	-11.4036
▁menino	-11.4038
gg	-11.4038
▁Lima	-11.4039
▁conflicts	-11.4039
▁indústrias	-11.4041
sar	-11.4041
▁fri	-11.4042
▁kmh	-11.4046
▁script	-11.4046
nis	-11.4049
▁Looking	-11.4051
▁demonstra	-11.4051
▁$2	-11.4054
▁entregue	-11.4054
▁infections	-11.4054
▁BC	-11.4055
RP	-11.4057
cis	-11.4057
ello	-11.4057
▁Link	-11.4058
CT	-11.406
▁Afeganistão	-11.406
▁UNESCO	-11.406
▁automóveis	-11.406
▁radiation	-11.4061
▁attractive	-11.4061
▁espero	-11.4061
▁Bro	-11.4062
▁sanções	-11.4062
▁normais	-11.4063
▁reveals	-11.4064
▁convinced	-11.4065
▁stream	-11.4069
▁consultation	-11.4069
▁inicialmente	-11.4069
▁95%	-11.407
▁Bla	-11.4071
▁sand	-11.4073
▁consciente	-11.4074
▁grego	-11.4075
▁Olympic	-11.4076
▁Spring	-11.4077
rias	-11.4078
▁reunir	-11.4078
▁Alto	-11.408
▁Trust	-11.408
take	-11.4081
▁amo	-11.4084
miss	-11.4085
▁passaram	-11.4088
▁Pakistan	-11.4088
▁Menu	-11.409
▁dust	-11.4091
bla	-11.4093
▁talent	-11.4094
face	-11.4099
hai	-11.4099
▁69	-11.4103
▁enormous	-11.4103
▁fáceis	-11.4103
▁mercy	-11.4103
▁Superior	-11.4103
▁Easy	-11.4103
▁Água	-11.4103
▁Samuel	-11.4103
▁harmful	-11.4104
▁perguntou	-11.4105
▁suave	-11.4105
▁smile	-11.4106
▁neve	-11.4108
▁involve	-11.4109
▁spoken	-11.4109
ay	-11.411
▁tomadas	-11.4111
illo	-11.4112
▁manufacturers	-11.4112
▁enviou	-11.4113
▁demonstrate	-11.4114
▁Cons	-11.4115
▁predict	-11.4117
▁Ol	-11.4118
▁Lar	-11.4118
▁cardíaca	-11.4119
Or	-11.4119
▁Application	-11.412
▁reflection	-11.412
▁senso	-11.4121
Há	-11.4124
▁4-	-11.413
rit	-11.4135
gy	-11.4136
▁AG	-11.4139
▁fundador	-11.4141
▁penso	-11.4142
▁aliados	-11.4144
▁Jose	-11.4144
▁suspeita	-11.4146
▁guidance	-11.4146
▁Federation	-11.4146
▁southern	-11.4146
▁Café	-11.4146
▁managing	-11.4147
▁teatro	-11.4147
▁700	-11.4148
▁plot	-11.4148
▁ligações	-11.4148
▁aviões	-11.4149
▁Phone	-11.4149
▁tira	-11.4152
▁lab	-11.4152
▁precisely	-11.4154
▁ilhas	-11.4154
▁craft	-11.4155
▁faces	-11.4156
▁Sei	-11.4156
Ver	-11.4156
▁adaptar	-11.4159
▁shoes	-11.4162
▁facilidade	-11.4163
bid	-11.4163
▁refuse	-11.4164
▁Crianças	-11.4164
▁trabalhou	-11.4165
cap	-11.4165
MB	-11.4169
▁Mur	-11.4173
▁paredes	-11.4173
▁Though	-11.4174
▁Virgin	-11.4176
▁inspiração	-11.418
▁shares	-11.4181
tern	-11.4189
▁dignidade	-11.4189
▁suicide	-11.4189
▁split	-11.4189
▁altitude	-11.4189
▁malware	-11.419
▁clínicos	-11.4193
gou	-11.4193
▁Albert	-11.4194
▁concreto	-11.4194
▁oldest	-11.4195
cin	-11.4195
▁Mulheres	-11.4196
▁kit	-11.4197
▁followers	-11.4197
▁consume	-11.4199
▁Ok	-11.4203
▁serves	-11.4205
▁Canon	-11.4206
▁fewer	-11.4206
▁supplier	-11.4207
▁candidato	-11.4207
▁elétrico	-11.421
▁grant	-11.421
ien	-11.4211
▁sugerem	-11.4212
anda	-11.4212
▁Java	-11.4213
▁Marine	-11.4213
TER	-11.4213
ib	-11.4215
▁temperatures	-11.4216
▁recall	-11.4223
▁Philip	-11.4223
▁modos	-11.4224
▁extract	-11.4224
▁idéias	-11.4225
▁satélite	-11.4225
vert	-11.4225
pic	-11.4231
nova	-11.4231
▁Supreme	-11.4232
▁conexões	-11.4232
▁dignity	-11.4232
▁impulso	-11.4232
▁orvalho	-11.4232
▁terrível	-11.4232
▁flesh	-11.4232
▁operacionais	-11.4232
▁criatividade	-11.4233
▁concurso	-11.4233
heim	-11.4233
▁Bélgica	-11.4234
▁friendship	-11.4234
▁dores	-11.4234
▁limitações	-11.4234
▁moradores	-11.4234
▁Espero	-11.4236
▁gradually	-11.4236
▁superar	-11.4239
▁journal	-11.4241
▁breath	-11.4243
▁Marina	-11.4244
▁salvo	-11.4247
▁candidate	-11.4251
▁apresentaram	-11.4252
▁desenvolvida	-11.4252
▁escritor	-11.4253
▁Still	-11.4253
▁tap	-11.4257
That	-11.4258
▁Sao	-11.4259
-15	-11.426
▁projectos	-11.4266
sal	-11.4275
▁príncipe	-11.4276
▁quantity	-11.4276
▁Luxury	-11.4276
▁Address	-11.4276
▁voltou	-11.4277
ā	-11.4279
▁pensei	-11.4283
▁esca	-11.4284
▁adequados	-11.4284
▁peak	-11.4284
▁Electronics	-11.4284
itar	-11.4286
▁Medicina	-11.4286
▁sacrifice	-11.4288
▁placebo	-11.4288
▁Unidade	-11.4289
▁shooting	-11.4289
▁lessons	-11.4291
▁norma	-11.4291
▁Playa	-11.4292
▁organs	-11.4294
▁discipline	-11.4297
▁avanço	-11.4298
▁IS	-11.4298
▁suppliers	-11.4301
▁driven	-11.4301
▁arrangements	-11.4302
▁originalmente	-11.4302
▁insulin	-11.4303
ctor	-11.4305
▁Run	-11.4306
▁ages	-11.4307
▁aparecem	-11.4308
▁faced	-11.4308
▁owned	-11.431
▁vary	-11.4313
izações	-11.4313
▁Mis	-11.4314
...”	-11.4315
▁conquista	-11.4316
▁coletiva	-11.4317
▁gerencia	-11.4318
quer	-11.4319
▁Pack	-11.4319
▁phenomenon	-11.4319
▁Alibaba	-11.432
ound	-11.432
tron	-11.432
▁Turkish	-11.4321
▁Zoom	-11.4321
▁toma	-11.4322
▁posteriormente	-11.4323
▁Autoridade	-11.4323
agens	-11.4324
▁Ak	-11.4325
▁tivemos	-11.4327
lim	-11.4327
▁Hy	-11.433
▁Hell	-11.433
sco	-11.4331
▁61	-11.4331
▁Ron	-11.4338
▁thy	-11.4338
▁Mexican	-11.4339
▁limitar	-11.4339
▁favoritos	-11.434
▁Hello	-11.434
▁listados	-11.434
▁coluna	-11.4341
▁measured	-11.4342
▁finds	-11.4342
▁CC	-11.4345
▁Pal	-11.4346
tics	-11.4348
▁sat	-11.4349
▁62	-11.4352
▁hi	-11.4352
VA	-11.4354
▁preserve	-11.4355
▁Environment	-11.4355
such	-11.4358
▁Phil	-11.4358
▁Pela	-11.4361
▁promoções	-11.4363
▁precipitação	-11.4363
▁Houston	-11.4363
▁specified	-11.4363
▁gospel	-11.4363
▁integrity	-11.4364
▁situa	-11.4364
▁Swiss	-11.4366
DP	-11.4366
▁discípulos	-11.4367
▁plug	-11.4367
▁RT	-11.4367
▁hip	-11.4367
▁characterized	-11.4369
..."	-11.437
▁3)	-11.437
vista	-11.4372
▁responde	-11.4376
▁manuals	-11.4376
▁1%	-11.4377
▁continuamente	-11.4377
▁estaria	-11.4379
▁singer	-11.438
▁mold	-11.4381
▁Controle	-11.4381
ches	-11.4385
▁escolhido	-11.4386
▁funcionalidade	-11.4387
▁turning	-11.4389
▁Ren	-11.4389
mbi	-11.4389
inhos	-11.439
wel	-11.4391
▁arise	-11.4393
cm	-11.4397
▁rescue	-11.4398
▁Details	-11.44
▁notas	-11.44
▁Cell	-11.44
▁bomb	-11.4402
▁intake	-11.4403
▁Olha	-11.4404
▁syndrome	-11.4407
▁Proteção	-11.4407
▁flexibility	-11.4407
▁excelência	-11.4407
▁FIFA	-11.4407
▁Universe	-11.4407
▁lesões	-11.4408
▁adverse	-11.4408
▁Collection	-11.4408
▁desconhecido	-11.4408
▁Police	-11.4409
▁Columbia	-11.4409
▁somebody	-11.4409
▁drawing	-11.441
▁civilização	-11.4411
▁lighting	-11.4411
▁gastar	-11.4414
▁Ag	-11.4419
▁terrorismo	-11.442
▁Email	-11.4424
▁Sh	-11.4424
▁Au	-11.4426
▁Testamento	-11.4426
▁município	-11.443
▁religiosas	-11.4432
▁XX	-11.4432
▁ho	-11.4435
▁sapatos	-11.4438
▁Lucas	-11.444
▁protocolo	-11.4443
ole	-11.4445
▁believes	-11.4447
▁anger	-11.4447
▁rival	-11.4447
▁beta	-11.4448
▁LI	-11.4452
▁Arthur	-11.4452
▁Descubra	-11.4452
▁simultaneamente	-11.4452
▁Católica	-11.4452
▁Sabe	-11.4452
CM	-11.4452
▁computação	-11.4452
▁loving	-11.4452
▁Lembre	-11.4452
▁discriminação	-11.4453
▁diminuição	-11.4453
▁satisfazer	-11.4453
▁tentou	-11.4454
▁Source	-11.4455
▁piso	-11.4455
▁concluiu	-11.4455
▁suddenly	-11.4455
bia	-11.4456
rick	-11.4456
▁sociedades	-11.4457
▁Meeting	-11.446
▁envolvendo	-11.446
▁Level	-11.4461
▁caiu	-11.4461
▁proprietários	-11.4462
▁Image	-11.4464
▁hyper	-11.4464
▁pessoalmente	-11.4471
spira	-11.4472
NC	-11.4472
▁gather	-11.4473
lay	-11.4473
▁depósito	-11.4475
▁externo	-11.4476
▁cookie	-11.4476
▁usage	-11.4478
▁Rua	-11.4479
▁aproxima	-11.4479
jet	-11.448
▁Res	-11.4481
▁horse	-11.4484
▁nucleares	-11.4486
ejo	-11.4487
▁rap	-11.4487
▁88	-11.4489
▁investigate	-11.4489
▁2001,	-11.449
mic	-11.4491
▁mortes	-11.4493
▁bath	-11.4494
▁priests	-11.4495
▁́	-11.4495
▁Assembleia	-11.4496
▁Grátis	-11.4496
▁contigo	-11.4496
▁mundiais	-11.4496
▁espelho	-11.4496
▁Amarillas	-11.4496
▁Boeing	-11.4496
▁conclusões	-11.4496
▁frutos	-11.4496
▁Branco	-11.4497
▁mortalidade	-11.4497
▁falling	-11.4501
▁tank	-11.4504
▁toxic	-11.4507
▁Ross	-11.4508
▁doce	-11.4509
ute	-11.4512
HA	-11.4512
▁cry	-11.4513
▁gratuita	-11.4518
lica	-11.4519
▁birds	-11.4519
uto	-11.452
▁Cast	-11.4521
▁econômicas	-11.4521
▁pobre	-11.4521
`	-11.4522
▁Alice	-11.4523
some	-11.4523
membros	-11.4523
▁horários	-11.4525
▁realiza	-11.4527
▁Canal	-11.4527
lea	-11.4528
oli	-11.4529
St	-11.4529
▁emerge	-11.453
▁revelado	-11.4532
▁complications	-11.4532
▁sofrem	-11.4532
▁arrest	-11.4532
▁Large	-11.4535
▁FL	-11.4535
tine	-11.4539
▁terrible	-11.4541
▁''	-11.4541
▁satisfied	-11.4543
▁Fun	-11.4543
cular	-11.4543
▁realizou	-11.4543
▁Advanced	-11.4544
▁Index	-11.4544
▁Milão	-11.4544
▁marks	-11.4546
▁linda	-11.4546
▁Sarah	-11.4547
▁Quick	-11.4547
▁MO	-11.4547
▁Legal	-11.455
▁stem	-11.4555
▁Officer	-11.4556
▁tomado	-11.4556
▁partilha	-11.4556
ece	-11.4558
▁mortal	-11.4563
ify	-11.4564
▁linear	-11.4565
▁disputa	-11.4565
▁atos	-11.4565
key	-11.4566
▁mistério	-11.4566
▁estrangeiro	-11.4567
▁braço	-11.4567
▁coach	-11.4567
lock	-11.4567
▁episode	-11.4568
▁fatal	-11.4569
▁verá	-11.4571
▁Common	-11.4572
gent	-11.4573
▁environments	-11.4575
▁negros	-11.4575
▁viewed	-11.4577
▁envolvido	-11.4579
▁rating	-11.4579
▁restore	-11.4581
ere	-11.4584
▁Academia	-11.4586
▁Fashion	-11.4586
▁stomach	-11.4586
▁interfere	-11.4586
▁integridade	-11.4586
▁Library	-11.4586
▁Charlie	-11.4587
▁Imagine	-11.4588
▁1975	-11.4588
▁revolutionary	-11.4589
▁describes	-11.459
▁introduce	-11.4596
▁protecting	-11.4598
▁potencialmente	-11.4598
▁ru	-11.4599
cr	-11.4606
▁organ	-11.4606
▁salas	-11.4608
iya	-11.4608
▁gal	-11.4609
▁Forest	-11.461
▁deixado	-11.461
known	-11.4612
▁posto	-11.4614
▁chegaram	-11.4615
table	-11.4616
▁permit	-11.4617
▁trials	-11.4617
▁Sob	-11.4618
▁cortar	-11.4619
▁corner	-11.4619
▁resulted	-11.4627
cto	-11.463
▁Gabriel	-11.463
▁Ambiente	-11.4631
▁Engenharia	-11.4631
▁calendário	-11.4631
▁espirituais	-11.4631
▁independence	-11.4631
▁refeições	-11.4631
▁ódio	-11.4631
▁narrow	-11.4631
▁alter	-11.4631
▁emissão	-11.4632
tum	-11.4632
▁Gallery	-11.4632
▁announcement	-11.4632
▁coverage	-11.4633
▁Solutions	-11.4633
▁nesses	-11.4643
▁ganhos	-11.4645
▁streaming	-11.4645
▁optar	-11.4646
▁insulina	-11.4647
▁recover	-11.465
mission	-11.4651
▁shock	-11.4655
▁destinos	-11.4658
▁negativo	-11.4659
grade	-11.466
▁recebem	-11.4662
▁ni	-11.4662
▁Humanos	-11.4663
▁representante	-11.4663
▁aplicada	-11.4667
▁vocal	-11.4668
▁praise	-11.4668
▁vo	-11.467
media	-11.4672
Pre	-11.4673
▁dever	-11.4673
▁Afghanistan	-11.4676
▁laboratory	-11.4676
▁bitcoin	-11.4676
▁harmonia	-11.4676
▁fault	-11.4676
▁copyright	-11.4676
▁nervous	-11.4676
▁raiva	-11.4676
▁1982	-11.4677
▁NATO	-11.4678
▁remoto	-11.4678
▁abrange	-11.4679
▁1.2	-11.4681
fully	-11.4681
▁proved	-11.4681
▁mandato	-11.4682
▁usou	-11.4683
▁escolar	-11.4683
▁baseadas	-11.4683
estrutura	-11.4687
▁aponta	-11.4687
▁mistakes	-11.4689
▁2009.	-11.4693
▁produtor	-11.4694
▁Muslims	-11.4697
▁Tickets	-11.4697
▁suportar	-11.4699
▁shoot	-11.4699
▁implementing	-11.47
▁excess	-11.4701
▁exhibition	-11.4705
▁teriam	-11.4707
▁measurement	-11.4707
▁Create	-11.4714
▁fuck	-11.4717
▁Within	-11.4717
▁intelligent	-11.4721
▁raízes	-11.4721
▁Defense	-11.4721
▁facial	-11.4721
▁Disse	-11.4722
▁fifth	-11.4723
▁Considerando	-11.4725
▁Moses	-11.4727
▁subir	-11.4729
▁puder	-11.4729
▁indicadores	-11.473
▁Sri	-11.473
▁gathered	-11.4731
▁velhos	-11.4731
▁derrota	-11.4731
▁vivendo	-11.4733
▁365	-11.4734
▁CS	-11.4734
▁officers	-11.4736
▁permitirá	-11.4736
▁almas	-11.4739
▁deeper	-11.4739
▁Uso	-11.4748
vid	-11.4749
▁pensam	-11.4749
▁virtude	-11.4751
▁faculdade	-11.4751
▁sítio	-11.4751
▁aparelho	-11.4751
▁canto	-11.4752
▁fruits	-11.4754
▁dedicado	-11.4754
▁suits	-11.4756
▁reside	-11.4757
aca	-11.4758
▁Working	-11.4759
▁precisamente	-11.476
▁Eye	-11.476
▁contraste	-11.476
▁depth	-11.4761
▁consideradas	-11.4764
▁agrícolas	-11.4767
▁municipal	-11.4767
▁Fórum	-11.4767
▁mirror	-11.4767
▁obesidade	-11.4767
▁yesterday	-11.4767
▁inclusão	-11.4767
▁Section	-11.4767
▁frota	-11.4767
RM	-11.4767
▁precoce	-11.4768
▁resumo	-11.4768
▁Manhattan	-11.4768
▁removal	-11.4768
▁engagement	-11.4769
▁escapar	-11.477
▁limpar	-11.477
▁voto	-11.477
▁plenamente	-11.4771
▁derived	-11.4772
▁transação	-11.4772
▁Lab	-11.4779
▁GB	-11.4781
ax	-11.4785
▁campanhas	-11.4789
▁eco	-11.4795
ete	-11.4798
▁Quarto	-11.4798
▁Communication	-11.4799
▁voar	-11.4799
▁Página	-11.4799
▁gera	-11.48
vil	-11.4802
ote	-11.4803
▁losses	-11.4806
ído	-11.4807
▁Cri	-11.4809
ótica	-11.481
▁shut	-11.481
▁Interior	-11.4813
▁Football	-11.4813
▁Cultura	-11.4813
▁Carolina	-11.4813
▁Alguém	-11.4814
▁acceptance	-11.4814
▁Version	-11.4814
▁Adicionar	-11.4816
▁literally	-11.4816
▁transparente	-11.4816
▁GT	-11.4817
▁Malta	-11.4818
▁assistente	-11.4818
FC	-11.4819
▁accused	-11.4819
▁solely	-11.482
▁1930	-11.4821
▁calories	-11.4822
▁medicinal	-11.4823
▁Casas	-11.4825
▁2008.	-11.4825
tero	-11.4827
▁Mind	-11.4829
▁Graças	-11.4829
▁protocol	-11.4829
▁aposta	-11.4829
▁Tours	-11.483
/10	-11.4831
▁Allah	-11.4833
On	-11.4834
▁repeat	-11.4835
▁Audi	-11.4836
▁fazia	-11.484
▁Iranian	-11.484
▁boss	-11.4841
IE	-11.4842
ret	-11.4843
gger	-11.4843
▁hipótese	-11.4845
▁weapon	-11.4845
▁aluno	-11.4846
▁Wil	-11.4847
▁cho	-11.4848
▁altera	-11.4848
▁ator	-11.4851
▁estima	-11.4852
▁perigoso	-11.4856
▁rosa	-11.4856
tam	-11.4858
▁esquema	-11.4859
▁Culture	-11.4859
▁condução	-11.4859
▁gra	-11.486
▁configuration	-11.486
▁Return	-11.486
▁alongside	-11.4861
▁isolated	-11.4861
▁eventualmente	-11.4861
▁Blood	-11.4861
▁pace	-11.4863
▁secretário	-11.4865
▁errada	-11.4865
▁neck	-11.4866
▁Living	-11.4866
▁funcional	-11.4868
▁essence	-11.4868
rito	-11.4869
▁tired	-11.4869
▁oficialmente	-11.487
▁Magic	-11.4874
▁shouldn	-11.4875
▁epi	-11.4876
▁Suite	-11.4879
▁printing	-11.4883
▁efetuar	-11.4885
▁commission	-11.4886
▁Ob	-11.4887
▁domínios	-11.4887
▁qua	-11.4888
CK	-11.489
▁britânica	-11.4892
▁torre	-11.4892
▁surpreendente	-11.4892
▁bottle	-11.4893
▁avançada	-11.4894
▁religiosos	-11.4896
▁medir	-11.4898
▁Rental	-11.4898
▁Serra	-11.4899
▁Jr	-11.4903
▁resulta	-11.4904
▁conscious	-11.4904
▁tende	-11.4905
▁Bangkok	-11.4905
▁carpooling	-11.4905
▁crazy	-11.4905
▁medieval	-11.4905
▁pollution	-11.4905
▁vigilância	-11.4905
cá	-11.4905
▁Besides	-11.4905
▁Venice	-11.4905
▁mankind	-11.4906
▁rational	-11.4906
▁programming	-11.4907
▁empresarial	-11.4907
▁compatible	-11.4907
▁debut	-11.4908
▁fugir	-11.4909
trans	-11.491
gh	-11.4911
▁QUE	-11.4914
▁Rec	-11.4916
▁visitas	-11.4916
▁slowly	-11.4917
aj	-11.4918
▁praias	-11.4918
▁Fine	-11.4918
▁attended	-11.4919
▁criados	-11.4919
▁modes	-11.4919
▁precisará	-11.4922
▁episódios	-11.4923
RT	-11.4925
▁AR	-11.4926
▁Print	-11.4928
lot	-11.4928
▁imigrantes	-11.4932
▁Fin	-11.4935
▁Send	-11.4935
▁olha	-11.4936
▁reader	-11.4936
▁fal	-11.4937
▁1.1	-11.4937
▁ending	-11.4938
▁Flight	-11.4938
▁Steven	-11.4939
▁associadas	-11.494
▁Planet	-11.4942
▁Girl	-11.4945
▁atletas	-11.4945
aire	-11.4949
▁110	-11.4949
▁Bin	-11.495
▁Gan	-11.4952
▁Chrome	-11.4952
▁Comunicação	-11.4952
▁powder	-11.4952
▁detecção	-11.4952
▁Condado	-11.4952
▁Major	-11.4953
▁transferred	-11.4953
▁Chapter	-11.4953
▁customs	-11.4953
▁Salt	-11.4954
▁somewhere	-11.4955
▁tight	-11.4955
▁Var	-11.4956
▁aplicado	-11.4957
▁clock	-11.496
▁Uber	-11.4964
▁destaca	-11.4968
fri	-11.4968
osos	-11.497
ativa	-11.4971
▁concert	-11.4972
Fo	-11.4972
▁Listen	-11.4972
▁ligados	-11.4975
▁connecting	-11.4978
▁compreende	-11.4982
▁acrescenta	-11.4983
▁Sy	-11.4983
▁passage	-11.4983
▁occasion	-11.4983
▁studying	-11.4984
pac	-11.4984
▁ponte	-11.4987
▁Poli	-11.4989
volu	-11.499
▁listas	-11.499
▁Dream	-11.4994
SH	-11.4996
▁raios	-11.4996
▁Form	-11.4997
▁Comércio	-11.4998
▁challenging	-11.4998
▁culinária	-11.4998
▁mysterious	-11.4998
▁preparing	-11.4998
▁silence	-11.4998
▁surgiu	-11.4998
core	-11.4999
▁envolvimento	-11.5
▁Camera	-11.5001
▁replacement	-11.5001
▁abriu	-11.5001
▁Brisa	-11.5001
▁Houve	-11.5002
aki	-11.5003
▁Money	-11.5003
▁Urban	-11.5003
uz	-11.5004
▁employed	-11.5005
etic	-11.5006
▁complexidade	-11.5007
▁soma	-11.5008
▁tanta	-11.5008
▁68	-11.5011
ear	-11.5012
Ar	-11.5012
▁Número	-11.5013
mir	-11.5013
▁st	-11.5014
▁terroristas	-11.5015
▁resultar	-11.5015
▁estiverem	-11.5021
▁ethical	-11.5023
rop	-11.5026
▁alega	-11.5026
▁Resorts	-11.5026
▁turistas	-11.5026
even	-11.5028
▁agradecer	-11.5028
1)	-11.5028
▁jump	-11.5029
▁preste	-11.5031
▁gostam	-11.5033
pol	-11.5034
▁06	-11.5034
▁disaster	-11.5035
▁bedroom	-11.5036
▁Hum	-11.5036
tais	-11.5036
▁aprovado	-11.5037
tch	-11.5037
▁addresses	-11.5039
▁Flat	-11.5043
▁favour	-11.5043
▁operator	-11.5044
▁Cliente	-11.5044
▁Innovation	-11.5045
▁inferno	-11.5046
▁confusão	-11.5046
▁Declaração	-11.5046
▁automático	-11.5046
▁vieram	-11.5047
▁mortality	-11.5047
▁Gostaria	-11.5047
▁birthday	-11.5047
▁PVC	-11.5047
▁Visão	-11.5048
▁seguindo	-11.5049
▁fracasso	-11.5049
▁adds	-11.5051
▁Usando	-11.5051
▁comportamentos	-11.5051
▁explora	-11.5052
▁rodas	-11.5052
▁amiga	-11.5054
▁corresponde	-11.5056
▁XP	-11.5057
▁Philips	-11.5057
▁Afinal	-11.5058
▁russos	-11.5061
IG	-11.5063
▁marine	-11.5063
▁350	-11.5064
▁actors	-11.5065
▁76	-11.5066
▁fu	-11.5066
▁falhas	-11.5066
▁notar	-11.5067
▁mood	-11.5067
▁vivos	-11.5068
NET	-11.5069
▁displayed	-11.5072
▁condenado	-11.5072
▁frequentes	-11.5073
▁fizer	-11.5075
▁Driver	-11.5075
▁examinar	-11.5076
▁exam	-11.5078
▁fl	-11.5078
▁regarded	-11.5079
▁mínima	-11.5083
FS	-11.5083
▁Sara	-11.5085
▁heads	-11.5086
▁bloco	-11.5087
▁Karl	-11.5091
▁Vá	-11.5092
▁Platform	-11.5093
▁Analytics	-11.5093
▁laptop	-11.5093
▁Denmark	-11.5093
▁Condições	-11.5093
▁strict	-11.5093
▁shipping	-11.5093
▁correio	-11.5094
▁observações	-11.5095
▁letras	-11.5095
▁investigadores	-11.5096
▁1940	-11.5097
▁Certo	-11.5099
▁ouviu	-11.51
▁pedras	-11.51
▁unusual	-11.5101
▁painting	-11.5102
▁Manuel	-11.5104
▁alert	-11.5106
▁Kids	-11.5106
▁almoço	-11.5109
▁Verão	-11.511
▁plasma	-11.5112
▁Fri	-11.5112
▁140	-11.5113
▁logic	-11.5113
▁Protocol	-11.5115
▁colon	-11.5116
▁circuit	-11.5116
▁essentially	-11.5121
▁15%	-11.5121
▁namely	-11.5123
TION	-11.5126
▁MD	-11.5128
▁confront	-11.513
▁tantos	-11.5131
▁câmara	-11.5131
▁citizen	-11.5132
▁terrorist	-11.5133
ites	-11.5133
▁Blo	-11.5134
▁mestre	-11.5134
▁copo	-11.5135
▁loan	-11.5136
▁arts	-11.5136
▁Clear	-11.5137
▁dizia	-11.5139
▁japonês	-11.514
▁solidarity	-11.514
▁financing	-11.514
▁Palácio	-11.514
▁facility	-11.514
▁Jorge	-11.5141
▁Vacation	-11.5141
▁interpret	-11.5141
▁airline	-11.5142
Li	-11.5142
▁1945	-11.5143
▁pull	-11.5145
▁warned	-11.5145
▁escritos	-11.5146
▁130	-11.5148
▁hall	-11.5149
▁Indonesia	-11.5149
▁exclusively	-11.5149
▁fixa	-11.5149
▁saiba	-11.5152
▁votos	-11.5155
▁Side	-11.5155
▁retorna	-11.5157
▁DJ	-11.5157
▁operated	-11.5157
▁secular	-11.5162
▁wire	-11.5164
▁integrada	-11.5165
hand	-11.517
▁Campo	-11.5175
▁suite	-11.5178
▁físicas	-11.5178
▁gerente	-11.518
▁molecular	-11.5182
▁receptor	-11.5182
ska	-11.5183
urs	-11.5184
▁imediata	-11.5185
▁Youth	-11.5187
▁Análise	-11.5188
▁Lincoln	-11.5188
▁carvão	-11.5188
▁clicando	-11.5188
▁Premium	-11.5188
▁poluição	-11.5188
▁refugees	-11.5188
▁Lewis	-11.5188
▁Between	-11.5189
une	-11.5189
▁Potter	-11.5189
▁permitted	-11.5189
▁ovos	-11.5191
▁calculated	-11.5193
▁prata	-11.5193
▁interessados	-11.5199
▁Girls	-11.52
▁colleagues	-11.52
▁exames	-11.5201
▁Virginia	-11.5202
▁fortalecer	-11.5204
▁Alan	-11.5204
▁desejam	-11.5204
▁conseguiram	-11.5205
hen	-11.5205
▁pacotes	-11.5206
▁selecionados	-11.5208
▁areia	-11.5209
lder	-11.5209
▁ships	-11.5211
rat	-11.5212
▁gross	-11.5212
▁procuram	-11.5212
▁vegetables	-11.5212
▁transportes	-11.5212
▁noticed	-11.5213
▁senha	-11.5216
▁puro	-11.5216
▁Estava	-11.5216
▁wise	-11.522
▁Date	-11.522
▁alfa	-11.5222
▁representing	-11.5223
▁voluntários	-11.5225
▁crash	-11.5226
▁produzidos	-11.5227
▁gigante	-11.5229
▁significativas	-11.523
▁genética	-11.5231
▁occupation	-11.5232
▁profession	-11.5233
▁Fernando	-11.5235
▁acessíveis	-11.5235
▁anniversary	-11.5235
▁Áustria	-11.5235
▁enabling	-11.5235
▁precipitation	-11.5235
▁returns	-11.5235
▁flexível	-11.5236
▁copies	-11.5236
▁centrais	-11.5236
▁celebração	-11.5237
▁1977	-11.5237
▁seguidores	-11.5237
▁recepção	-11.5238
▁transforma	-11.5241
▁uni	-11.5241
▁FDA	-11.5242
▁bur	-11.5243
▁Later	-11.5247
▁tag	-11.5247
▁declara	-11.5249
▁(17	-11.5249
▁interessantes	-11.525
▁seca	-11.525
▁Mau	-11.525
▁tire	-11.5251
▁funcionam	-11.5253
▁cure	-11.5256
▁AP	-11.5256
▁oposto	-11.5256
▁Cy	-11.5259
▁actively	-11.5259
▁78	-11.5263
▁Pur	-11.5264
▁Lago	-11.5265
▁affairs	-11.5266
aw	-11.5268
▁refund	-11.5269
▁combine	-11.5269
▁NOT	-11.5272
ori	-11.5272
▁gastos	-11.5273
▁bilhete	-11.5275
mine	-11.5275
▁desenvolve	-11.5277
God	-11.5277
▁yield	-11.5277
▁garota	-11.5278
▁Mulher	-11.5278
▁scheme	-11.5278
▁ensaio	-11.5278
IV	-11.5278
▁efetiva	-11.5281
▁ge	-11.5281
▁strip	-11.5282
▁mom	-11.5282
▁inclusion	-11.5284
▁transparency	-11.5284
▁vegetais	-11.5284
▁Ônibus	-11.5284
▁babies	-11.5284
▁urina	-11.5284
ará	-11.5284
▁escura	-11.5285
▁calma	-11.5285
▁personnel	-11.5285
▁1967	-11.5286
▁expressar	-11.5287
▁repeated	-11.5288
▁texts	-11.5291
▁turnê	-11.5291
▁circular	-11.5292
app	-11.5293
▁Environmental	-11.5293
▁Deep	-11.5294
VI	-11.5295
▁recompensa	-11.5298
▁seeks	-11.5299
▁levado	-11.53
▁Excel	-11.5301
▁correctly	-11.5301
▁vistos	-11.5302
▁functioning	-11.5302
ESS	-11.5304
▁Seven	-11.5305
▁6:	-11.5306
▁adjust	-11.5307
▁encontramos	-11.5307
BI	-11.5308
▁rumo	-11.5309
▁sofre	-11.5309
▁minds	-11.5309
▁Wild	-11.5309
▁Vocês	-11.531
pped	-11.5313
▁Ham	-11.5313
▁estabelecidas	-11.5313
▁wearing	-11.5314
▁react	-11.5315
▁Qua	-11.5315
▁engines	-11.5317
ush	-11.5318
bos	-11.5322
▁84	-11.5323
bet	-11.5324
▁Tam	-11.5325
▁Wind	-11.5325
▁publicou	-11.5326
IO	-11.5327
▁clínico	-11.5327
▁broadcast	-11.5327
▁Georgia	-11.5329
▁pago	-11.5329
▁eletrônicos	-11.5329
▁teorias	-11.533
▁Visual	-11.5331
▁Futebol	-11.5332
▁jurisdiction	-11.5332
▁transparência	-11.5332
▁sessões	-11.5332
▁Zelândia	-11.5332
▁libertação	-11.5333
▁entretanto	-11.5333
▁perdas	-11.5333
▁externas	-11.5333
▁gráficos	-11.5334
▁intensity	-11.5334
▁vacation	-11.5335
▁iniciais	-11.5335
▁HTML	-11.5335
▁directive	-11.5335
GB	-11.5336
▁Preto	-11.5337
▁transmitir	-11.5338
ís	-11.5339
zan	-11.5339
▁{	-11.534
▁reign	-11.534
▁missões	-11.5343
▁contributions	-11.5344
▁apostas	-11.5344
pat	-11.5345
ration	-11.5345
▁abertos	-11.5346
▁reserves	-11.5346
▁conditioning	-11.5347
▁complexos	-11.5349
▁oceano	-11.5349
/5	-11.5352
rica	-11.5354
▁adaptação	-11.5356
").	-11.5356
▁preocupar	-11.5356
list	-11.536
aba	-11.536
▁newly	-11.5364
▁adequadas	-11.5368
lli	-11.537
▁trigger	-11.5371
▁2.5	-11.5371
▁sanctions	-11.5373
▁Heaven	-11.5375
▁Palma	-11.5376
▁certificate	-11.5376
▁competência	-11.5377
pr	-11.5378
▁pronta	-11.5378
At	-11.5379
▁Hebrew	-11.538
▁connosco	-11.538
▁selecione	-11.538
▁Plastic	-11.538
▁perdão	-11.538
▁Captain	-11.5381
▁corre	-11.5381
▁involvement	-11.5381
▁parallel	-11.5381
▁Gerais	-11.5381
▁visualizar	-11.5382
▁meditation	-11.5382
▁Friendly	-11.5382
▁chart	-11.5382
▁herança	-11.5384
▁indicado	-11.5384
▁Acredita	-11.5386
▁Ice	-11.5386
▁motivation	-11.5387
Several	-11.5388
▁heating	-11.5388
▁arrested	-11.5391
▁Criador	-11.5392
gur	-11.5395
oz	-11.5397
▁casar	-11.5398
▁affects	-11.54
▁Ky	-11.54
▁authorized	-11.5407
▁Mat	-11.5407
▁Procura	-11.5408
screen	-11.541
elli	-11.5415
Isso	-11.5418
BC	-11.5421
▁País	-11.5422
▁IC	-11.5429
▁Conteúdo	-11.5429
▁exceção	-11.5429
▁finanças	-11.5429
▁indigenous	-11.5429
▁italiana	-11.5429
▁Jersey	-11.5429
▁aceite	-11.543
▁reprodução	-11.543
path	-11.543
▁mouse	-11.543
▁vazio	-11.543
▁entrance	-11.543
▁participating	-11.543
▁santo	-11.5431
▁Perhaps	-11.5431
▁Abraham	-11.5431
▁adoção	-11.5431
▁Climate	-11.5432
▁transit	-11.5438
▁Lin	-11.5438
▁roda	-11.5439
▁applying	-11.544
▁senão	-11.5441
▁chegando	-11.5441
▁broke	-11.5446
gado	-11.5448
▁emphasis	-11.5449
▁detectar	-11.545
pare	-11.545
▁burning	-11.545
ace	-11.5451
ciais	-11.5458
▁RA	-11.5459
commerce	-11.5459
<	-11.5459
▁Studios	-11.5459
▁tip	-11.546
UM	-11.5465
3%	-11.5466
hou	-11.5467
▁angle	-11.5472
bas	-11.5473
wer	-11.5473
▁Discover	-11.5475
▁EP	-11.5476
▁render	-11.5477
▁Train	-11.5478
▁profissão	-11.5478
▁sólida	-11.5478
reemeteo	-11.5478
ema	-11.5479
▁excessive	-11.5479
▁precious	-11.5479
▁propõe	-11.5479
▁introduzir	-11.5479
▁1976	-11.548
▁sozinha	-11.5481
▁Português	-11.5481
eja	-11.5481
▁opposed	-11.5483
▁disponibiliza	-11.5483
▁PP	-11.5484
▁ought	-11.5485
mia	-11.5486
▁imposed	-11.5486
▁Limited	-11.5487
▁Lim	-11.5488
▁incidente	-11.5489
▁refused	-11.5491
▁bot	-11.5492
pus	-11.5493
▁bin	-11.5494
▁Cas	-11.5494
▁Wine	-11.5495
▁Nor	-11.5496
care	-11.5498
▁gostar	-11.5498
▁UV	-11.55
▁testemunha	-11.5501
HO	-11.5502
▁Aqueles	-11.5502
▁repente	-11.5504
worth	-11.5505
▁confirmar	-11.5506
▁elétricos	-11.5507
▁prize	-11.5507
▁Geo	-11.551
▁ficando	-11.551
▁Alma	-11.5511
▁Ker	-11.5511
▁Plant	-11.5516
▁bars	-11.5517
▁Gor	-11.5519
▁florestas	-11.552
CL	-11.552
▁freely	-11.5521
▁mask	-11.5523
▁07	-11.5524
▁luck	-11.5524
▁chinesa	-11.5526
▁auxílio	-11.5527
▁futura	-11.5527
▁feminina	-11.5527
▁rígido	-11.5527
▁reforço	-11.5527
▁castelo	-11.5527
▁Performance	-11.5528
▁Holanda	-11.5528
▁Faith	-11.5528
▁urgente	-11.5528
▁intervenções	-11.5528
▁modified	-11.5528
▁complicated	-11.5529
▁reflexão	-11.5529
▁personalizado	-11.553
▁beneficial	-11.5533
▁fomos	-11.5536
▁Dra	-11.5537
▁BO	-11.5541
▁Mega	-11.5542
▁Mario	-11.5542
ille	-11.5543
▁Americana	-11.5544
▁manga	-11.5545
▁Tag	-11.5546
▁Mode	-11.5548
▁focusing	-11.5551
▁improvements	-11.5552
▁hu	-11.5552
▁Linha	-11.5552
▁waters	-11.5555
▁Mari	-11.5559
tha	-11.556
▁96	-11.556
▁pointed	-11.556
▁1985	-11.5561
▁exercises	-11.5562
▁bet	-11.5563
▁supervision	-11.5564
▁Empresas	-11.5565
gna	-11.5567
▁borders	-11.5569
▁titular	-11.5569
▁flowers	-11.557
▁wage	-11.5573
▁contents	-11.5574
▁funcionário	-11.5575
▁Municipal	-11.5576
cada	-11.5577
pas	-11.5577
▁Usuário	-11.5577
▁Mercedes	-11.5577
▁Música	-11.5577
▁SENHOR	-11.5577
▁furniture	-11.5577
▁hospitais	-11.5577
▁sensível	-11.5577
▁unexpected	-11.5577
▁supplies	-11.5577
▁Céu	-11.5577
▁agrícola	-11.5577
▁enforcement	-11.5577
▁meals	-11.5577
▁fiber	-11.5578
▁assassinato	-11.5578
▁mantendo	-11.5578
▁ciências	-11.5579
▁unir	-11.5579
▁Navy	-11.5579
▁Matthew	-11.558
▁Op	-11.5581
▁preferences	-11.5581
▁assigned	-11.5582
▁significance	-11.5582
▁organizado	-11.5583
▁empregados	-11.5584
▁wheel	-11.5585
▁herói	-11.5585
▁contribui	-11.5585
rec	-11.5586
▁Pictures	-11.5586
▁Princess	-11.5587
▁Jogo	-11.5588
▁Fonte	-11.5591
▁Ora	-11.5591
OT	-11.5592
PL	-11.5592
cup	-11.5593
▁Jay	-11.5594
nger	-11.5594
▁plate	-11.5595
▁inovadoras	-11.5596
jan	-11.5601
▁officially	-11.5602
▁ingestão	-11.5603
▁Explorer	-11.5604
001	-11.5604
▁desejar	-11.5605
Mi	-11.5606
ew	-11.5606
▁artistic	-11.5607
▁Soul	-11.5609
▁Jane	-11.5609
▁lançada	-11.5611
▁limitations	-11.5611
▁Opera	-11.5612
▁olhando	-11.5614
▁belo	-11.5616
▁Cala	-11.5618
▁promises	-11.5619
▁firme	-11.5623
vindo	-11.5623
▁Mala	-11.5623
phone	-11.5625
▁peculiar	-11.5626
▁clássica	-11.5627
▁eletricidade	-11.5627
▁mecânica	-11.5627
▁nursing	-11.5627
▁Oxford	-11.5627
▁relief	-11.5627
▁stood	-11.5627
▁alliance	-11.5627
▁incidência	-11.5627
▁evangelho	-11.5627
▁Barack	-11.5627
▁dependência	-11.5627
▁admitted	-11.5628
▁fr	-11.5628
▁Investment	-11.5628
▁territorial	-11.5628
▁Apartamento	-11.5628
▁mantido	-11.5629
▁attribute	-11.5629
▁possuir	-11.563
grad	-11.563
▁hero	-11.5632
▁explicação	-11.5632
poli	-11.5633
▁uniform	-11.5636
▁produces	-11.5639
▁interessa	-11.5639
▁moves	-11.5639
▁encomenda	-11.5639
▁reações	-11.5641
▁Negócios	-11.5641
▁Cama	-11.5641
▁electro	-11.5641
▁discussions	-11.5642
▁ruins	-11.5646
fold	-11.5647
▁beaches	-11.5647
▁designs	-11.5648
▁Surf	-11.5651
▁attempts	-11.5651
▁guided	-11.5656
lógico	-11.5656
▁firms	-11.5657
oper	-11.5658
▁cancel	-11.5658
▁viram	-11.5659
▁(10	-11.5661
She	-11.5667
▁excelentes	-11.5671
▁indicam	-11.5672
▁constitute	-11.5673
▁indicar	-11.5673
▁capitalism	-11.5675
▁Avenue	-11.5677
▁Birmingham	-11.5677
▁Communist	-11.5677
▁cachorro	-11.5677
▁memories	-11.5677
▁suicídio	-11.5677
▁sequence	-11.5677
▁colocou	-11.5677
▁housing	-11.5677
▁Pequim	-11.5677
▁alínea	-11.5677
▁glad	-11.5678
▁Companies	-11.5678
▁Stra	-11.5678
▁simultaneously	-11.5678
▁cart	-11.5679
▁gráfico	-11.5679
▁rendimento	-11.568
▁matou	-11.5682
▁talked	-11.5683
▁requirement	-11.5683
ded	-11.5684
▁indication	-11.5687
▁idiomas	-11.5687
%	-11.5688
▁Animal	-11.5688
▁bebé	-11.5689
▁scheduled	-11.569
▁juros	-11.569
▁[1]	-11.569
▁ka	-11.5692
▁scan	-11.5693
▁Rico	-11.5694
▁raio	-11.5696
▁Visa	-11.5696
▁Bri	-11.5697
▁Somente	-11.57
▁capitalismo	-11.57
▁anuncia	-11.5702
▁Constitution	-11.5704
▁publicar	-11.5705
post	-11.5705
range	-11.5707
▁inscrição	-11.5708
▁esqui	-11.571
type	-11.571
oo	-11.571
▁ST	-11.5717
UR	-11.5719
▁notável	-11.572
▁baseia	-11.572
▁Alugu	-11.5721
▁1920	-11.5722
▁87	-11.5723
▁3.5	-11.5724
▁afford	-11.5726
AB	-11.5727
▁Residence	-11.5727
▁iguais	-11.5727
▁navigation	-11.5727
▁Atlanta	-11.5727
▁Kennedy	-11.5727
▁Relações	-11.5727
▁silver	-11.5727
▁acomodação	-11.5727
▁Wilson	-11.5728
▁substituição	-11.5728
▁Package	-11.5728
▁prestação	-11.5728
▁Versão	-11.5728
▁lesão	-11.5729
▁dentre	-11.5729
▁sing	-11.5729
▁consultar	-11.5729
▁convite	-11.5729
▁estimação	-11.5729
▁deputado	-11.573
ibility	-11.573
▁variable	-11.5731
▁thin	-11.5732
▁Virtual	-11.5733
▁stake	-11.5733
ffer	-11.5733
▁ajudará	-11.5734
▁Precisamos	-11.5734
▁especializados	-11.5735
▁1,000	-11.5736
▁enviados	-11.5736
▁Cab	-11.5736
▁sta	-11.5736
▁combina	-11.5737
▁63	-11.5739
▁Thi	-11.574
▁Guard	-11.5741
▁Ryan	-11.5744
▁deuses	-11.5746
▁79	-11.5748
▁lavar	-11.5751
▁operar	-11.5752
▁promete	-11.5753
▁purchased	-11.5756
700	-11.5758
▁00	-11.5759
▁manifesta	-11.5761
▁nano	-11.5763
cate	-11.5764
▁subsequent	-11.5765
▁pursue	-11.5768
▁tracking	-11.5772
ístico	-11.5776
responsibilities	-11.5777
▁Intelligence	-11.5777
▁suspensão	-11.5777
▁síndrome	-11.5777
▁óbvio	-11.5777
▁unnecessary	-11.5778
▁calças	-11.5778
▁♪	-11.5778
▁yeah	-11.5778
▁Cancelon	-11.5778
▁acusações	-11.5778
▁inflammation	-11.5778
▁yellow	-11.5779
▁Batman	-11.578
▁cadeira	-11.5782
▁autorizado	-11.5785
▁estabeleceu	-11.5785
▁baixas	-11.5786
▁lamp	-11.5787
CD	-11.5787
▁Users	-11.5788
tile	-11.5788
▁est	-11.5789
▁surprised	-11.5792
▁Panel	-11.5794
inas	-11.5796
▁cresce	-11.58
lec	-11.5802
ened	-11.5804
▁lucros	-11.5804
mus	-11.5805
▁mel	-11.5806
▁Pla	-11.5806
▁mail	-11.5807
SL	-11.5807
▁meets	-11.5811
▁assassino	-11.5814
▁memórias	-11.5815
LY	-11.5815
▁incluídos	-11.5816
▁courage	-11.5816
▁approaches	-11.5816
▁Basta	-11.5818
▁afecta	-11.5819
PD	-11.5819
tual	-11.5823
/1	-11.5823
7)	-11.5824
▁retail	-11.5824
▁gr	-11.5824
▁dependent	-11.5825
▁privadas	-11.5825
▁Nar	-11.5825
oh	-11.5826
▁equality	-11.5826
▁Finance	-11.5827
▁Original	-11.5827
▁Arábia	-11.5828
▁largura	-11.5828
▁completion	-11.5828
▁horizontal	-11.5828
▁Property	-11.5828
▁Division	-11.5829
▁exceptional	-11.5829
▁exibição	-11.5829
▁conservation	-11.5829
▁raramente	-11.583
▁discrimination	-11.5832
▁governamentais	-11.5832
▁diagnosed	-11.5833
▁confess	-11.5834
▁67	-11.5834
▁climática	-11.5834
▁critério	-11.5834
▁TA	-11.5834
▁bilhetes	-11.5834
▁lowest	-11.5834
▁caminhada	-11.5835
▁Romano	-11.5837
ters	-11.5838
▁quebrar	-11.5839
▁Quase	-11.584
▁suficientes	-11.5841
▁SAP	-11.5842
▁Cru	-11.5842
▁Books	-11.5844
▁shit	-11.5847
▁Anne	-11.5848
▁cancro	-11.5849
▁77	-11.5851
encia	-11.5853
▁publicada	-11.5856
▁achiev	-11.5857
▁skill	-11.5857
▁Cali	-11.5859
▁blow	-11.5859
000	-11.5866
vent	-11.5866
adora	-11.5867
▁influenced	-11.5867
TP	-11.5868
▁singular	-11.5869
Show	-11.5872
▁visits	-11.5872
▁08	-11.5873
▁Update	-11.5873
▁Classic	-11.5874
▁indicators	-11.5875
▁particulares	-11.5876
▁obstáculos	-11.5876
vio	-11.5879
dida	-11.5879
ō	-11.5879
▁Próximo	-11.5879
▁prominent	-11.5879
▁clicar	-11.5879
▁tradições	-11.5879
tória	-11.588
LC	-11.588
▁versus	-11.588
▁laugh	-11.588
▁contribuições	-11.5881
▁exit	-11.5881
▁CR	-11.5881
▁Truth	-11.5882
▁nutrientes	-11.5883
▁declaration	-11.5883
▁Rica	-11.5886
▁roles	-11.5886
▁obviously	-11.5886
▁ajudando	-11.5887
▁Castelo	-11.5887
▁lê	-11.5887
▁avançado	-11.5888
stan	-11.589
▁2019,	-11.589
▁fechado	-11.5891
▁authentic	-11.5892
▁cave	-11.5895
▁Pot	-11.5895
▁equally	-11.5895
▁treatments	-11.5897
▁cop	-11.5897
▁alimentares	-11.5898
▁juiz	-11.59
lves	-11.5901
▁Meio	-11.5901
Ad	-11.5903
rac	-11.5907
ony	-11.5907
▁monthly	-11.5913
ulo	-11.5913
▁fraca	-11.5914
▁conduz	-11.5915
6%	-11.5915
▁encoraja	-11.5917
ques	-11.5918
▁seed	-11.592
gie	-11.5921
▁territórios	-11.5923
▁declare	-11.5924
sin	-11.5925
hotel	-11.5929
▁Bluetooth	-11.5931
▁Vienna	-11.5931
▁chineses	-11.5931
▁cognitive	-11.5931
▁societies	-11.5931
▁Suporte	-11.5931
▁Boutique	-11.5931
▁Veneza	-11.5931
▁resume	-11.5931
▁ruling	-11.5931
▁exploitation	-11.5931
▁medicines	-11.5931
ança	-11.5933
▁1.0	-11.5934
▁Roll	-11.5935
▁Turn	-11.5935
▁salva	-11.5935
▁Interest	-11.5937
▁handling	-11.5938
▁tópico	-11.5938
▁cream	-11.5939
▁bandeira	-11.5939
▁positivos	-11.594
▁1,5	-11.5942
fort	-11.5942
▁MC	-11.5943
▁mata	-11.5947
game	-11.5949
▁Br	-11.5949
▁Nenhuma	-11.5953
▁chemicals	-11.5954
▁contributed	-11.5955
rc	-11.5956
▁penal	-11.5957
▁targeted	-11.5958
▁praticar	-11.5959
PM	-11.596
▁Learning	-11.596
▁Bet	-11.5961
pet	-11.5965
▁Gro	-11.5969
sey	-11.5971
▁apartamentos	-11.5973
▁apresentadas	-11.5974
▁continent	-11.5975
▁drinks	-11.5975
▁temperaturas	-11.5979
▁intensa	-11.598
▁localizados	-11.598
▁Aérea	-11.5982
▁Indústria	-11.5982
▁Vermelho	-11.5982
▁pleasant	-11.5982
▁prevalence	-11.5982
▁sugestões	-11.5982
▁surveillance	-11.5982
▁divino	-11.5982
▁obtenção	-11.5982
▁estoque	-11.5982
▁complicações	-11.5982
▁imigração	-11.5982
▁sentar	-11.5982
cum	-11.5982
▁integrate	-11.5983
▁Hilton	-11.5983
▁renewable	-11.5983
▁proposto	-11.5983
▁Localização	-11.5984
▁1983	-11.5984
▁Marco	-11.5984
▁dirigido	-11.5986
emed	-11.5986
▁pdf	-11.5986
▁documentação	-11.5987
▁Speed	-11.5988
▁proceedings	-11.5988
▁eastern	-11.599
ares	-11.599
▁explanation	-11.599
▁sacrifício	-11.599
▁fake	-11.599
▁specifications	-11.5991
▁sections	-11.5991
▁fornecido	-11.5991
▁críticos	-11.5992
▁alemães	-11.5992
▁rejected	-11.5994
▁emails	-11.5997
▁ocupa	-11.5998
▁europeias	-11.5998
power	-11.5999
▁Leo	-11.5999
▁True	-11.5999
▁detected	-11.6
▁gira	-11.6003
▁lifetime	-11.6003
ender	-11.6008
tto	-11.6008
GO	-11.6008
▁pares	-11.6011
▁74	-11.6011
▁brasileiros	-11.6014
▁JO	-11.6017
ota	-11.6017
oon	-11.602
4%	-11.6025
▁tape	-11.6026
▁oferecemos	-11.6027
pé	-11.6027
▁sessions	-11.6028
▁Bot	-11.6028
ivos	-11.6029
cat	-11.6029
EX	-11.6031
firm	-11.6031
▁parcial	-11.6031
ológico	-11.6032
onia	-11.6033
▁accuracy	-11.6034
▁subscription	-11.6034
▁coordenação	-11.6034
▁Could	-11.6035
▁policiais	-11.6035
▁eletrônica	-11.6035
▁punishment	-11.6035
▁Display	-11.6035
▁methodology	-11.6035
▁margem	-11.6036
▁migration	-11.6036
▁guilty	-11.6036
mond	-11.6038
▁pleno	-11.6038
▁sensibilidade	-11.6038
Oh	-11.6039
▁publicações	-11.6041
uring	-11.6042
▁Máquina	-11.6043
▁infected	-11.6043
▁truck	-11.6043
▁cópias	-11.6045
▁Pensa	-11.6046
▁definida	-11.6048
▁dimensions	-11.6048
▁pico	-11.6048
dou	-11.6049
▁Ant	-11.6052
iba	-11.6053
▁elegante	-11.6053
LP	-11.6053
▁negativos	-11.6054
▁Congo	-11.6057
põe	-11.6058
▁prepara	-11.606
▁fila	-11.6062
▁Had	-11.6065
▁postura	-11.6068
▁throw	-11.6068
▁Sho	-11.6069
▁till	-11.6069
▁aeronaves	-11.607
emia	-11.607
▁processar	-11.6072
▁arco	-11.6074
▁publicly	-11.6075
▁disappear	-11.6076
▁hole	-11.6077
rial	-11.6078
▁amado	-11.6079
▁Chan	-11.6079
▁adotar	-11.6079
▁terrorism	-11.6081
▁surgir	-11.6082
▁mothers	-11.6082
ICA	-11.6083
▁traditions	-11.6084
▁preferências	-11.6084
▁Algarve	-11.6086
▁council	-11.6086
▁creativity	-11.6086
▁expenditure	-11.6086
▁fígado	-11.6086
▁injuries	-11.6086
▁swimming	-11.6086
▁Creative	-11.6086
▁layout	-11.6088
▁functionality	-11.6088
▁envelhecimento	-11.6088
▁narrativa	-11.6088
▁Kevin	-11.6088
▁fundação	-11.6088
▁choque	-11.6089
▁warranty	-11.6089
▁Marinha	-11.6089
▁peito	-11.6089
ception	-11.6089
▁Articles	-11.609
▁Davi	-11.609
▁abilities	-11.609
▁Additionally	-11.6091
▁transferir	-11.6092
▁qualities	-11.6093
▁Again	-11.6094
▁celebration	-11.6097
enda	-11.6099
▁captured	-11.61
rma	-11.6101
▁Wolf	-11.6104
!!!	-11.6106
▁Neo	-11.6107
quin	-11.6108
ory	-11.6109
▁argumento	-11.6109
▁culto	-11.611
▁legs	-11.611
Packard	-11.6112
▁Arena	-11.6113
▁segmento	-11.6113
▁Lan	-11.6114
▁representation	-11.6114
lip	-11.6115
Star	-11.6119
▁Met	-11.6119
▁roots	-11.6121
verse	-11.6121
▁compromissos	-11.6124
▁09	-11.6126
▁succeed	-11.6128
▁Clark	-11.613
▁seeds	-11.613
position	-11.6131
▁rapaz	-11.6132
▁determina	-11.6133
master	-11.6134
▁Short	-11.6135
lado	-11.6136
sub	-11.6138
▁Heritage	-11.6138
▁freqüência	-11.6138
▁territories	-11.6138
▁ênfase	-11.6138
▁Economia	-11.6138
▁resgate	-11.6138
▁(8	-11.6138
▁Norway	-11.6139
▁safeguard	-11.6139
▁liability	-11.6139
▁Finland	-11.6139
▁Cable	-11.6139
▁Volvo	-11.6139
▁←	-11.614
▁Chu	-11.614
▁legend	-11.614
▁lava	-11.6141
▁costumava	-11.6142
▁populations	-11.6142
▁Consulte	-11.6143
▁2007.	-11.6145
▁piano	-11.6145
▁visualização	-11.6145
▁adequadamente	-11.6146
unda	-11.6146
▁blocos	-11.6149
▁nascer	-11.615
▁violation	-11.6151
duction	-11.6153
▁apoia	-11.6154
▁Size	-11.6154
▁clouds	-11.6154
▁loves	-11.6156
▁Fat	-11.6156
▁crystal	-11.6156
▁sc	-11.6158
▁AB	-11.6159
▁creatures	-11.6162
▁externos	-11.6162
▁pl	-11.6164
▁solicitado	-11.6165
▁captura	-11.6167
▁publicados	-11.6171
▁buscando	-11.6173
▁themes	-11.6173
II	-11.6174
▁angel	-11.6176
▁ski	-11.6176
▁históricos	-11.6176
▁destinations	-11.6177
▁impede	-11.6177
▁medications	-11.6178
▁canções	-11.618
ega	-11.6181
▁crises	-11.6181
bury	-11.6182
▁FE	-11.6185
ij	-11.6186
AI	-11.6187
[...]
